<pad>	0
<unk>	0
<s>	0
</s>	0
<START>	0
<END>	0
;	-2.94372
▁=	-3.13181
▁(	-3.39621
▁{	-3.46341
▁}	-3.47259
▁i	-3.56113
▁<<	-3.63388
▁int	-3.75855
=	-3.82788
,	-3.89655
[	-3.92125
▁n	-3.94274
i	-3.96146
▁>>	-3.97496
▁0;	-3.99175
▁	-4.07066
▁if	-4.12055
▁<	-4.23305
▁cout	-4.29592
▁a	-4.35505
)	-4.38746
▁+	-4.38872
▁for	-4.45249
▁cin	-4.48831
int	-4.49386
(	-4.54659
▁long	-4.55914
]	-4.57398
▁-	-4.58289
▁endl	-4.6071
++)	-4.62369
()	-4.6724
▁b	-4.69613
▁return	-4.81335
▁s	-4.82002
▁j	-4.90931
▁main	-4.91828
n	-4.93152
▁1;	-4.94256
▁else	-4.98356
▁"	-5.04868
▁x	-5.10253
▁m	-5.13889
a	-5.17086
▁c	-5.17816
▁k	-5.21408
.	-5.23214
▁ans	-5.31237
▁*	-5.31708
j	-5.3534
▁>	-5.35665
];	-5.45043
"	-5.56827
s	-5.57287
▁0)	-5.59683
▁%	-5.60003
▁/	-5.60579
);	-5.62591
++;	-5.65155
1	-5.65899
▁y	-5.67645
▁t	-5.72815
==	-5.72919
&	-5.73698
▁&	-5.74982
x	-5.82072
2	-5.82793
t	-5.88178
▁1)	-5.91589
▁sum	-5.94191
▁d	-5.96764
▁p	-6.04289
▁1	-6.05928
_	-6.07141
▁2	-6.0859
▁!	-6.09399
▁'	-6.10531
▁string	-6.10787
▁l	-6.13439
le	-6.15908
▁v	-6.19531
▁whi	-6.20132
▁0,	-6.20517
▁r	-6.21255
";	-6.22155
][	-6.27726
b	-6.29209
size	-6.40485
▁2;	-6.44389
▁0	-6.47807
<	-6.48704
();	-6.49231
▁min	-6.49278
k	-6.49792
▁arr	-6.50885
▁cnt	-6.52317
▁max	-6.55845
long	-6.56333
>	-6.57754
reak	-6.59338
▁1]	-6.61757
])	-6.65721
▁++	-6.68409
c	-6.69357
[0]	-6.69465
||	-6.74506
▁f	-6.76946
f	-6.77227
1,	-6.78047
▁cons	-6.78083
O	-6.78227
NO	-6.80003
▁2)	-6.80473
3	-6.81065
e	-6.82191
m	-6.85558
y	-6.88902
▁char	-6.88971
YES	-6.92158
▁str	-6.93667
▁res	-6.95276
▁num	-6.96067
▁count	-6.98541
')	-7.02384
--)	-7.02979
▁q	-7.03606
';	-7.04041
p	-7.06668
\	-7.06675
r	-7.0939
▁flag	-7.10072
▁bool	-7.10952
l	-7.11042
▁"\	-7.12539
2;	-7.12816
▁temp	-7.13547
--;	-7.14414
cin	-7.21045
▁true	-7.21918
▁z	-7.22888
'	-7.24762
push	-7.25507
v	-7.26562
[1]	-7.26789
▁wh	-7.27326
▁vector	-7.27829
ans	-7.2979
ile	-7.30161
▁sort	-7.32249
back	-7.32253
▁false	-7.32461
length	-7.35063
▁w	-7.36705
▁'\	-7.40424
▁1,	-7.41614
arr	-7.44211
▁10;	-7.4551
▁N	-7.46839
▁abs	-7.47504
▁h	-7.47992
▁3;	-7.48045
▁((	-7.49955
2)	-7.55036
end	-7.57298
d	-7.57513
sum	-7.58825
str	-7.59428
begin	-7.60622
▁dp	-7.61333
))	-7.61381
char	-7.61629
▁len	-7.63127
1;	-7.68424
▁10	-7.70588
]);	-7.7077
void	-7.7123
▁(!	-7.71648
")	-7.74724
▁1);	-7.75112
▁A	-7.76237
▁ch	-7.77478
▁-1	-7.77513
▁1])	-7.78665
▁g	-7.79931
▁:	-7.80926
?	-7.80968
string	-7.8151
▁mod	-7.83126
▁e	-7.84283
▁tmp	-7.85444
▁3	-7.86408
▁5;	-7.87064
cnt	-7.87977
▁gcd	-7.88126
));	-7.89598
A	-7.90699
ontinue	-7.91015
▁get	-7.92227
[2]	-7.92351
▁u	-7.92537
1)	-7.93082
flag	-7.95484
u	-7.9613
D	-7.97314
▁mx	-8.01033
());	-8.03835
1[	-8.04847
set	-8.06543
num	-8.07719
▁4;	-8.08088
].	-8.11448
▁-1;	-8.12625
▁st	-8.12841
▁double	-8.1562
▁1];	-8.15771
o	-8.16073
▁4	-8.16157
▁1][	-8.16801
▁mp	-8.17595
N	-8.18599
▁sizeof	-8.18887
R	-8.20573
abs	-8.20585
9	-8.22793
▁map	-8.2318
▁S	-8.23192
▁mem	-8.23532
▁3)	-8.24306
q	-8.24473
▁7;	-8.25412
())	-8.26498
temp	-8.26897
h	-8.28613
2[	-8.29177
S	-8.29278
++	-8.29584
len	-8.3086
line	-8.32179
▁"|	-8.32862
0,	-8.33489
▁maxn	-8.33855
max	-8.3387
z	-8.34632
▁5	-8.36545
]++;	-8.36552
insert	-8.37142
ch	-8.4096
second	-8.42461
▁total	-8.42679
▁set	-8.43601
▁solve	-8.44959
▁M	-8.45041
5	-8.45179
min	-8.45753
("	-8.46937
▁mid	-8.4886
▁mn	-8.48892
▁ar	-8.49136
first	-8.49968
");	-8.50214
count	-8.50842
0	-8.51078
▁8;	-8.51415
▁pos	-8.52147
[3]	-8.53228
▁B	-8.53496
pos	-8.53979
puts	-8.54073
maxn	-8.5475
▁MOD	-8.5625
[105]	-8.56997
w	-8.57107
B	-8.57907
[0];	-8.61988
L	-8.62315
T	-8.62778
▁{0}	-8.63718
g	-8.64555
▁swap	-8.64666
▁INF	-8.64926
▁7	-8.65094
-	-8.66911
1.	-8.67158
res	-8.68793
find	-8.69608
",	-8.69846
▁result	-8.70552
MAX	-8.71743
▁'0';	-8.72058
▁1))	-8.72788
▁vis	-8.7316
▁T	-8.74396
▁co	-8.77407
▁cur	-8.77477
▁now	-8.77805
▁check	-8.77969
st	-8.7882
3;	-8.78873
▁'0'	-8.80151
▁-1)	-8.80491
▁val	-8.80571
I	-8.83346
']	-8.83391
1++;	-8.83518
▁'0')	-8.83592
▁ok	-8.84473
LL	-8.86278
substr	-8.87853
▁5)	-8.88017
▁ss	-8.88441
▁counter	-8.89548
▁last	-8.89657
▁maxx	-8.9043
dp	-8.90474
▁2);	-8.9157
][0]	-8.91829
[5]	-8.94382
▁tot	-8.94523
▁ret	-8.94782
▁'-')	-8.95232
▁6;	-8.95878
▁'1')	-8.97021
}	-8.97148
▁2]	-8.97151
[4]	-8.97381
▁dfs	-8.97435
[0])	-8.97773
C	-8.99018
▁4)	-8.99442
▁INT	-8.99444
▁L	-8.99461
▁10)	-8.99635
0;	-9.01321
▁C	-9.02523
(0);	-9.03235
▁inf	-9.03816
▁o	-9.03823
▁"+	-9.0402
4	-9.06143
U	-9.06652
[100]	-9.06818
[1])	-9.07263
▁100;	-9.07342
▁prime	-9.07992
▁name	-9.08288
▁"*";	-9.08404
vis	-9.08584
tmp	-9.08735
▁in	-9.09277
▁and	-9.09403
▁P	-9.09635
▁vec	-9.09793
▁7)	-9.1059
▁R	-9.11009
M	-9.1122
in	-9.11306
▁"-1"	-9.11998
[101]	-9.12165
▁"0"	-9.13357
▁"";	-9.14594
▁1000000007;	-9.16855
--	-9.1791
mp	-9.18697
▁index	-9.18965
signed	-9.19876
▁cost	-9.20071
[10]	-9.20399
▁|	-9.20823
2);	-9.21633
2++;	-9.22243
+	-9.23328
erase	-9.2334
▁"#";	-9.23413
▁minn	-9.23823
▁1000;	-9.24622
check	-9.249
[100005]	-9.27077
▁MAX	-9.28161
Yes	-9.28487
▁input	-9.28884
No	-9.28953
▁read	-9.29644
▁row	-9.29956
((	-9.3018
[1000]	-9.30456
2.	-9.30809
▁cont	-9.31368
};	-9.32405
▁'9')	-9.32712
[1005]	-9.32939
['	-9.33085
3)	-9.33227
▁sqrt	-9.33418
▁answer	-9.33553
▁'+')	-9.33741
▁'*')	-9.33949
++]	-9.34442
[6]	-9.34526
][1]	-9.34888
▁100	-9.34931
3,	-9.34959
X	-9.36013
pop	-9.36187
cur	-9.36749
gcd	-9.36939
G	-9.3746
1);	-9.38679
▁ma	-9.39344
▁time	-9.4051
it	-9.41492
[110]	-9.41976
▁left	-9.42238
]]	-9.4277
[3];	-9.43134
cos	-9.43812
▁aux	-9.44062
clea	-9.44798
ok	-9.4506
9;	-9.4519
pair	-9.45353
▁new	-9.45823
▁pre	-9.45911
now	-9.46592
F	-9.46974
ar	-9.47727
▁maxi	-9.48125
mx	-9.48498
▁reverse	-9.48552
P	-9.50258
▁pow	-9.50354
1[0]	-9.5051
▁start	-9.5106
▁xx	-9.51924
▁curr	-9.52244
top	-9.52394
index	-9.5254
▁ceil	-9.52638
▁ara	-9.52672
▁number	-9.53203
nst	-9.53824
[1];	-9.54021
▁6	-9.5442
▁second	-9.54528
▁prev	-9.55438
]))	-9.55602
▁col	-9.56102
6	-9.56427
',	-9.56948
▁right	-9.56959
▁dist	-9.5717
empty	-9.57691
▁"1"	-9.57858
▁26;	-9.58767
W	-9.60259
64	-9.60287
MAXN	-9.60557
▁un	-9.60927
>::	-9.61367
{	-9.61395
nt	-9.6201
▁".";	-9.62169
(2	-9.62293
▁X	-9.62659
▁8	-9.629
▁8)	-9.63033
▁G	-9.63415
▁(2	-9.63908
prime	-9.64076
start	-9.64996
▁6)	-9.65671
▁mini	-9.66616
▁base	-9.67082
get	-9.67167
▁fast	-9.67448
▁diff	-9.67624
1[1]	-9.68014
▁(1)	-9.68131
out	-9.68603
▁dy	-9.6901
1};	-9.69367
|)"	-9.69666
Friendship	-9.6969
[0][0]	-9.69787
double	-9.70724
[8]	-9.70965
is	-9.72817
per	-9.73003
▁Max	-9.73505
ron	-9.73774
[1001]	-9.7381
▁MAXN	-9.739
hed	-9.74636
▁con	-9.75015
true	-9.75382
▁__	-9.7555
->	-9.75626
▁'#';	-9.75887
▁--	-9.7623
[4];	-9.7666
▁mark	-9.76731
[2];	-9.76835
▁first	-9.77081
-|	-9.77235
▁word	-9.77568
[]	-9.77602
▁pair	-9.77671
]]++;	-9.77855
▁test	-9.78493
ite	-9.78992
▁'.')	-9.79492
Second	-9.79741
<<	-9.80564
[2])	-9.81142
mid	-9.81247
▁it	-9.8127
IG	-9.81401
rock	-9.81777
▁12;	-9.82343
▁my	-9.82413
First	-9.82681
▁day	-9.82787
▁60	-9.82898
▁rem	-9.82911
at	-9.8371
sors	-9.83846
pa	-9.83877
[0][	-9.84203
▁step	-9.8439
▁1000	-9.85775
▁9;	-9.8705
▁cmp	-9.87092
1]	-9.87354
▁data	-9.87795
rator	-9.88537
▁power	-9.88638
▁dx	-9.89122
▁"-	-9.89326
▁20;	-9.90885
▁'1'	-9.91044
|	-9.92955
▁'*';	-9.93203
!"	-9.93269
[0][1]	-9.93724
SEGMENT	-9.93914
▁ct	-9.94954
▁lcm	-9.95387
▁mm	-9.95542
▁one	-9.96595
!	-9.96827
Time	-9.96904
▁dis	-9.97011
▁price	-9.97017
cmp	-9.97711
▁np	-9.97719
]--;	-9.98115
OOOO	-9.98246
▁{}	-9.98492
ss	-9.98935
▁pq	-9.99218
▁idx	-9.99502
val	-9.99822
▁'(')	-10.0024
[100000]	-10.0122
▁"-1	-10.0181
▁(((	-10.0196
▁'.';	-10.0231
Y	-10.0292
idx	-10.0317
precision	-10.0317
▁D	-10.0507
mod	-10.051
▁'#')	-10.0523
7	-10.0548
▁2))	-10.0573
▁1]);	-10.0626
[26]	-10.071
input	-10.0726
▁do	-10.0813
if	-10.0832
[3][3]	-10.0868
OO	-10.0891
▁'1';	-10.0943
▁find	-10.0953
▁30	-10.096
ue	-10.0992
[100001]	-10.1006
▁top	-10.1009
cout	-10.1017
LEFT	-10.1044
TRIANGLE	-10.1044
▁end	-10.1063
▁score	-10.108
▁26	-10.1082
front	-10.1167
▁Y	-10.1214
time	-10.1229
[200]	-10.1247
DOWN	-10.1286
UP	-10.1288
▁output	-10.131
▁ind	-10.1327
▁yy	-10.1331
pow	-10.1333
or	-10.1354
▁br	-10.1391
▁init	-10.1481
maxx	-10.1532
name	-10.1582
▁exit	-10.1586
▁kol	-10.1597
▁father	-10.1608
for	-10.1627
left	-10.1627
▁cek	-10.1627
▁'8')	-10.1629
diff	-10.1654
▁'\0';	-10.1664
▁nl	-10.1717
>>	-10.173
digit	-10.1749
▁fb	-10.1769
OOO	-10.1793
▁sz	-10.1828
▁fa	-10.184
▁freq	-10.1855
PRINT	-10.1919
0)	-10.1944
▁high	-10.2027
[7]	-10.2124
4;	-10.2124
▁"#	-10.2128
mn	-10.2157
▁put	-10.2164
2]	-10.2266
mark	-10.2274
▁bb	-10.2303
[1010]	-10.2322
▁op	-10.2326
▁'4')	-10.2343
▁lo	-10.2358
last	-10.2391
row	-10.2404
▁tb	-10.2425
▁'7')	-10.2525
▁Min	-10.2533
▁value	-10.2553
element	-10.2565
▁gets	-10.2573
▁'4'	-10.2575
▁to	-10.2597
[30]	-10.2619
▁-1}	-10.2637
[10000]	-10.2639
open	-10.2702
▁E	-10.2712
[1][	-10.2788
']++;	-10.2791
▁(!(	-10.2833
▁key	-10.2854
▁primes	-10.2876
IMPOSSIBLE	-10.2879
▁mi	-10.2908
▁pr	-10.2928
▁print	-10.2936
cis	-10.3051
▁60;	-10.3068
▁hi	-10.3094
total	-10.3103
(-1);	-10.3156
▁15)	-10.3174
fa	-10.3203
re	-10.3225
▁tt	-10.3233
"]	-10.3235
ll	-10.3253
op	-10.3273
▁998244353	-10.3273
tolower	-10.3329
▁':')	-10.3357
[1][0]	-10.3367
▁dif	-10.3374
▁10);	-10.3378
');	-10.3411
▁(1	-10.3423
▁coun	-10.3426
▁mat	-10.3452
PS	-10.3479
▁win	-10.3505
TE	-10.3557
▁add	-10.3595
▁9)	-10.3605
::	-10.3615
▁_	-10.3616
▁size	-10.3673
vec	-10.3674
[51]	-10.3684
▁sol	-10.3729
▁inp	-10.3752
▁current	-10.3787
▁que	-10.3862
[3])	-10.3886
▁low	-10.3906
win	-10.3921
▁div	-10.394
Correct	-10.394
▁adj	-10.3959
number	-10.3989
▁100)	-10.4005
[11]	-10.4014
0];	-10.4074
▁12	-10.4082
iter	-10.4088
▁'0');	-10.4091
▁vv	-10.4104
[9]	-10.4157
2[0]	-10.4173
▁re	-10.4243
[0]);	-10.4246
E	-10.4258
[1][1]	-10.4287
▁found	-10.4316
AM	-10.4319
▁need	-10.4329
▁best	-10.4419
ara	-10.4439
(-1.0	-10.4441
red	-10.4482
▁color	-10.4501
▁11;	-10.4549
▁9	-10.4589
▁1));	-10.4595
▁sy	-10.4682
▁ex	-10.4716
xx	-10.4749
board	-10.4782
[105][105]	-10.4785
cpy	-10.4821
txt	-10.4833
[5][5]	-10.4839
▁1][0]	-10.4859
(1	-10.4872
][2]	-10.491
▁fre	-10.491
cost	-10.494
18;	-10.4942
[101][101]	-10.4953
▁25	-10.4957
MIN	-10.4969
▁WINS	-10.497
[60]	-10.4979
▁31	-10.4991
ind	-10.5005
('	-10.5012
2[1])	-10.5057
▁out	-10.5074
(3	-10.5076
[2	-10.5086
▁cal	-10.5088
▁"0	-10.5117
▁3,	-10.5128
▁judge	-10.5189
▁250)	-10.5201
[55]	-10.5236
ret	-10.5237
[100010]	-10.526
[200005]	-10.5311
id	-10.5343
ER	-10.5361
▁100000;	-10.5389
▁minx	-10.5425
un	-10.5445
▁two	-10.5469
sqrt	-10.5481
▁dem	-10.5498
5;	-10.5524
▁4);	-10.5545
▁eps	-10.5593
▁20)	-10.5611
----------	-10.5616
[20]	-10.5638
▁table	-10.5647
▁32;	-10.565
▁next	-10.5668
▁cc	-10.5668
Akshat	-10.5684
▁book	-10.5693
magic	-10.5732
chest	-10.5736
▁resp	-10.5739
▁goto	-10.5773
▁2])	-10.5802
▁myset	-10.5803
up	-10.5805
▁joy	-10.5859
▁dir	-10.5878
right	-10.5893
▁go	-10.5918
▁3);	-10.5921
▁')')	-10.5934
head	-10.5968
▁std	-10.5975
vector	-10.5976
▁12)	-10.6015
tot	-10.604
▁fixed	-10.6057
--------------+"	-10.607
rat	-10.6071
Chris	-10.6072
Mahmoud	-10.6072
Malvika	-10.6072
Mishka	-10.6072
Ehab	-10.6072
[2][1]	-10.6078
[2005]	-10.6082
ter	-10.6085
blue	-10.6151
Power	-10.6155
*	-10.6191
▁50	-10.6202
▁30;	-10.6213
▁array	-10.6222
▁tp	-10.6246
▁10]	-10.6249
▁(0);	-10.627
▁grid	-10.6271
RU	-10.6284
aux	-10.6322
biceps	-10.6362
AT	-10.6381
endl	-10.6402
-----------	-10.6404
(0)	-10.641
2))	-10.6414
result	-10.6419
▁0}	-10.6422
[50]	-10.6433
on	-10.6469
▁hh	-10.6476
▁isprime	-10.6488
▁up	-10.6505
▁maximum	-10.652
▁is	-10.6523
man	-10.6527
▁1][1]	-10.6562
▁Arr	-10.6571
▁isPrime	-10.6583
▁suma	-10.6593
▁15	-10.6626
▁tc	-10.6647
▁fact	-10.666
]])	-10.6692
▁float	-10.677
lo	-10.6772
data	-10.6784
▁'?')	-10.6794
woman	-10.6832
-------------+"	-10.6841
▁line	-10.6842
[0][2]	-10.6859
child	-10.6885
▁1000000000	-10.6944
6;	-10.6961
▁sb	-10.6988
upper	-10.6996
▁48;	-10.6996
▁or	-10.7008
▁can	-10.7027
▁(180	-10.705
8	-10.7053
ator	-10.7071
UL	-10.7129
▁gap	-10.7154
][1];	-10.716
pre	-10.7163
▁105;	-10.7176
DR	-10.7178
▁stack	-10.7205
green	-10.7276
▁ty	-10.729
LU	-10.7301
return	-10.7308
▁level	-10.7315
step	-10.7324
Anton	-10.7337
Danik	-10.7337
LD	-10.7358
▁(360	-10.737
RD	-10.7373
exp	-10.7389
▁se	-10.739
▁Number	-10.74
aren	-10.7435
[1][2]	-10.7459
▁even	-10.7488
(10	-10.7507
▁sub	-10.7521
▁digit	-10.7524
co	-10.7525
asya	-10.7536
[12]	-10.7538
curr	-10.754
------------	-10.756
toupper	-10.7577
▁hate	-10.7596
▁"0";	-10.7631
▁su	-10.7648
▁ada	-10.7649
RE	-10.7663
[++	-10.7688
color	-10.7694
found	-10.7725
▁0))	-10.774
en	-10.7752
▁good	-10.7769
▁MIN	-10.7771
stream	-10.7771
▁fin	-10.7773
][1])	-10.7773
ntinue	-10.7785
▁big	-10.7785
Reality	-10.7797
Soul	-10.7797
Space	-10.7797
Mind	-10.7802
bool	-10.7806
▁"#.	-10.7829
▁id	-10.7832
ation	-10.7848
▁make	-10.7848
▁greater	-10.7855
▁times	-10.7862
▁used	-10.7866
▁odd	-10.7895
▁"?"	-10.7953
▁brr	-10.7973
------------+"	-10.7986
▁days	-10.799
make	-10.7993
of	-10.801
Incorrect	-10.8035
▁mul	-10.8083
▁mymap	-10.8094
▁no	-10.8109
et	-10.8114
▁comp	-10.8132
▁points	-10.814
▁pref	-10.8151
▁the	-10.8162
2[0])	-10.8171
▁fuel	-10.8182
▁kk	-10.8214
[2][0]	-10.8221
▁'8'	-10.8237
IM	-10.8272
▁0);	-10.8282
▁match	-10.8288
▁"5"	-10.8305
▁letter	-10.8324
que	-10.8329
▁nums	-10.8338
ceil	-10.8382
Misha	-10.8387
▁'*'	-10.8411
▁hash	-10.8419
▁1000000;	-10.8422
no	-10.8434
▁mult	-10.8456
▁1]))	-10.8473
position	-10.8501
▁WI	-10.8513
orange	-10.8519
▁moves	-10.8551
▁zero	-10.8557
▁13)	-10.8559
counter	-10.8575
[0].	-10.8598
▁change	-10.8618
▁distance	-10.865
▁upper	-10.8667
[1]);	-10.8686
▁blue	-10.8687
▁"2"	-10.8687
▁length	-10.8689
▁lower	-10.8711
▁qr	-10.8712
▁store	-10.8727
-9	-10.8735
/"	-10.8738
▁10000;	-10.8771
▁fun	-10.8774
Penny	-10.8785
oward	-10.8785
turn	-10.8812
▁position	-10.8815
dif	-10.8831
:	-10.8835
▁mas	-10.8839
▁sieve	-10.8841
sci	-10.8843
▁tem	-10.8858
(1);	-10.8894
▁calc	-10.8931
["	-10.8939
one	-10.896
rem	-10.8961
▁fl	-10.8963
reg	-10.8967
▁chest	-10.8981
▁ctr	-10.8999
▁var	-10.9025
▁arg	-10.9045
Leonard	-10.9048
Rajesh	-10.9048
Sheldon	-10.9048
[1000005]	-10.9049
visited	-10.9051
Tie	-10.9051
Max	-10.9053
yellow	-10.9077
-------------	-10.9089
▁factor	-10.909
▁priority	-10.9098
▁'[')	-10.9122
[10][10]	-10.9122
[2001]	-10.9129
▁visit	-10.9152
▁cou	-10.9161
cons	-10.9166
cw	-10.9168
▁5]	-10.9189
ma	-10.9199
▁2];	-10.9228
▁{-1	-10.9236
ign	-10.9278
.";	-10.9286
ut	-10.9307
purple	-10.9319
▁1000000007	-10.9353
(0	-10.9374
value	-10.9382
main	-10.9392
▁ql	-10.9399
▁month	-10.9428
▁W	-10.9449
flg	-10.9467
ore	-10.9469
-----------+"	-10.9506
▁ed	-10.9509
▁pass	-10.955
Oct	-10.9593
▁bit	-10.9595
Black	-10.9596
White	-10.9596
▁visited	-10.9598
▁med	-10.9602
9)	-10.9629
mini	-10.9638
isprime	-10.9642
map	-10.9646
col	-10.9648
▁way	-10.9654
ccw	-10.9671
▁has	-10.9713
prev	-10.9797
▁1]++;	-10.986
[55][55]	-10.9882
[2][2]	-10.9885
sort	-10.9891
▁dep	-10.9899
▁fill	-10.9902
next	-10.9935
captain	-10.9937
▁15;	-10.9947
▁remove	-10.995
half	-10.9952
unique	-10.9958
▁hitung	-10.9964
[15]	-10.9967
minn	-10.9981
▁16)	-11.0012
▁";	-11.0012
▁work	-11.0042
▁'?'	-11.0074
[1000000]	-11.0081
▁all	-11.0088
▁pi	-11.0115
word	-11.0131
▁list	-11.0133
▁1].	-11.0136
1][	-11.0138
3);	-11.0152
Color	-11.0178
igned	-11.0187
▁'.'	-11.0188
[102]	-11.0191
▁valid	-11.0191
CD	-11.02
come	-11.021
▁year	-11.0214
else	-11.0216
▁sp	-11.031
tra	-11.0347
▁ele	-11.0384
▁22)	-11.0403
▁11)	-11.0412
▁1000000009;	-11.0452
▁en	-11.0471
graph	-11.0479
▁1.0	-11.0509
▁love	-11.0519
▁Input	-11.052
tc	-11.0525
▁goal	-11.053
sign	-11.0543
home	-11.057
▁ta	-11.0599
odd	-11.061
▁uns	-11.0687
]));	-11.0704
▁ck	-11.0712
ac	-11.0726
Equal	-11.0792
[100][100]	-11.0797
▁psum	-11.0797
▁48);	-11.0808
▁1005;	-11.083
▁gu	-11.0831
▁red	-11.0844
▁rlmoves	-11.0845
▁curlower	-11.0847
[1].	-11.0867
▁'9'	-11.0875
compare	-11.0901
2(	-11.0923
act	-11.093
▁starty	-11.0967
▁biceps	-11.0971
maxi	-11.0993
--------------	-11.1013
▁pw	-11.1045
▁ll	-11.105
▁edges	-11.1061
▁'('	-11.1105
▁100000	-11.1107
Alice	-11.1114
Bob	-11.1115
▁100001;	-11.1143
▁'5')	-11.1146
Sum	-11.1152
er	-11.1158
▁exp	-11.1174
▁'['	-11.1183
▁lol	-11.12
▁down	-11.1219
cek	-11.123
array	-11.1232
[100	-11.1262
▁ff	-11.1264
▁lim	-11.1305
▁3])	-11.1326
8;	-11.134
oo	-11.1352
▁'-';	-11.1373
▁dat	-11.139
▁"#"	-11.1393
1];	-11.1403
.#.#.#.#.	-11.1411
▁5);	-11.1414
----------+"	-11.1417
odec	-11.142
▁cap	-11.1445
short	-11.1474
NG	-11.1499
day	-11.15
▁plus	-11.1503
▁1000000007)	-11.1514
10	-11.154
▁matches	-11.1559
1))	-11.1574
▁players	-11.1579
▁log	-11.1581
dx	-11.1592
▁move	-11.1593
▁cup	-11.1594
la	-11.1605
hash	-11.1606
tr	-11.1611
ta	-11.1645
."	-11.166
▁pp	-11.166
Te	-11.1661
alpha	-11.1664
vowel	-11.1664
▁prog	-11.1685
▁20	-11.1714
▁side	-11.172
▁par	-11.1745
Masha	-11.1792
TIE	-11.1792
Dasha	-11.1793
▁rotate	-11.1812
[100000	-11.182
olve	-11.1831
▁200;	-11.184
[201]	-11.1851
2];	-11.1866
.#.#.#.#.#.	-11.187
▁nCr	-11.1871
2[1]	-11.1897
10;	-11.1898
▁itr	-11.19
letter	-11.1901
▁numbers	-11.1914
▁green	-11.1917
▁48	-11.1918
▁game	-11.1924
▁F	-11.1941
▁1001;	-11.195
▁stringstream	-11.1957
[10005]	-11.1986
ex	-11.1994
▁winner	-11.2039
▁22;	-11.2039
▁inv	-11.2082
▁tm	-11.2098
log	-11.2105
▁ori	-11.2109
▁Count	-11.211
▁board	-11.2138
▁md	-11.2171
▁an	-11.2192
)((	-11.2221
▁sumb	-11.2221
score	-11.2223
dist	-11.2227
mat	-11.2245
▁weak	-11.2261
base	-11.2281
father	-11.2284
▁cycle	-11.2308
isPrime	-11.2339
ios	-11.2351
][2];	-11.2352
▁item	-11.2353
▁men	-11.2366
▁from	-11.2381
that	-11.2382
sp	-11.2391
iz	-11.2437
Arr	-11.2437
▁'<'	-11.2456
contest	-11.252
[110][110]	-11.2524
▁Ans	-11.2525
UR	-11.2542
es	-11.2555
[120]	-11.259
▁28	-11.2598
▁rl	-11.2603
se	-11.2624
▁mov	-11.2627
▁three	-11.2638
▁shu	-11.2646
▁des	-11.2651
inp	-11.272
freq	-11.2724
Number	-11.278
solve	-11.2808
▁lenb	-11.2895
bound	-11.2905
cont	-11.2907
[1000	-11.2907
[1]++;	-11.2909
▁sup	-11.2914
▁soroban	-11.2928
▁contador	-11.2965
low	-11.2976
▁lca	-11.2977
RA	-11.2984
▁rat	-11.3
lower	-11.3016
▁123;	-11.302
][0];	-11.3032
mxm	-11.304
app	-11.3041
▁extra	-11.3048
▁240	-11.3056
float	-11.3125
▁"|#.	-11.3133
▁rec	-11.3147
▁tx	-11.3168
whichPosn	-11.3172
down	-11.3176
root	-11.3183
team	-11.3186
▁maxm	-11.3209
▁'+'	-11.3212
ct	-11.3218
To	-11.3245
▁asd	-11.3263
mber	-11.3263
till	-11.3266
▁ac	-11.3301
[205]	-11.3305
▁cy	-11.3331
▁97;	-11.3349
▁oo	-11.3357
[200001]	-11.3366
▁gr	-11.3376
▁menor	-11.3386
18	-11.339
)(	-11.3394
▁101;	-11.3394
---------------	-11.3424
ava	-11.3425
▁dig	-11.3428
points	-11.3434
▁cell	-11.345
▁'<')	-11.3467
▁sign	-11.3492
▁'#'	-11.3495
rr	-11.3502
days	-11.3509
▁MX	-11.3515
price	-11.3517
[200000]	-11.3527
▁coins	-11.3542
can	-11.3549
[500]	-11.3554
hi	-11.3577
need	-11.3578
judge	-11.3579
kol	-11.3585
▁tam	-11.3586
()));	-11.3589
used	-11.3599
visit	-11.3603
▁86400	-11.3609
TESTS	-11.361
err	-11.3612
ck	-11.3613
valid	-11.3642
▁jumlah	-11.3644
nd	-11.3664
Int	-11.3677
▁aa	-11.3702
test	-11.3706
undefined	-11.3721
zxcvbnm	-11.3721
anako	-11.3722
sdfghjkl	-11.3723
▁po	-11.3744
▁final	-11.3748
---------+"	-11.3757
10);	-11.3778
▁floor	-11.3806
▁weight	-11.381
▁deg	-11.3831
▁rta	-11.3857
▁"/	-11.3881
div	-11.3916
▁bus	-11.3917
▁seq	-11.3933
▁prices	-11.3938
isa	-11.3962
▁alpha	-11.3966
mm	-11.3979
▁half	-11.3994
▁60)	-11.4033
▁cn	-11.4035
▁edge	-11.404
▁'7'	-11.4078
▁lessons	-11.4088
▁'>'	-11.4094
yes	-11.4104
▁tim	-11.411
sz	-11.4135
ube	-11.4137
asil	-11.415
qwertyuiop	-11.4156
Ciel	-11.4156
,./"	-11.4158
an	-11.4211
.........	-11.4216
▁96	-11.427
7;	-11.4272
▁TESTS	-11.4274
▁levels	-11.4307
▁be	-11.4308
▁sq	-11.4314
[10010]	-11.4323
▁tab	-11.4325
par	-11.4328
▁clock	-11.4336
[400]	-11.4364
▁dos	-11.442
▁xay	-11.444
▁180	-11.4441
ne	-11.4444
▁letters	-11.4446
#.#.#.#.#.|.|)"	-11.448
▁200	-11.4481
▁sh	-11.4483
▁diag	-11.4483
▁21)	-11.4489
▁point	-11.4495
▁500;	-11.4499
dg	-11.4509
#.#.#.#.#.#.	-11.4513
plus	-11.4535
exist	-11.4538
gap	-11.4544
▁numOf	-11.4557
▁write	-11.4576
lol	-11.4595
eat	-11.4597
Nikita	-11.4611
Danil	-11.4611
Olya	-11.4611
▁Rozdil	-11.4627
▁txt	-11.4628
▁"1/1"	-11.4645
▁toggle	-11.4651
▁lst	-11.4656
▁"25	-11.4662
[27]	-11.4664
[200000	-11.4676
subtractions	-11.468
▁exist	-11.4684
▁pro	-11.4699
.............|"	-11.47
al	-11.4702
▁minimum	-11.4703
gets	-11.4719
▁maxy	-11.4755
Ann	-11.4784
▁pot	-11.479
▁dim	-11.4796
▁counts	-11.4799
▁off	-11.4821
fl	-11.4828
list	-11.4842
..........	-11.4844
nums	-11.4855
#.#.#.#.|.|)"	-11.4858
um	-11.4921
▁97)	-11.4922
▁items	-11.4923
▁rest	-11.4929
yy	-11.4941
▁97	-11.4953
▁3]	-11.4959
'))	-11.496
▁2));	-11.4967
▁light	-11.4967
ary	-11.4999
).	-11.5031
udmoves	-11.5039
▁iter	-11.5072
zero	-11.5089
dest	-11.5096
▁LCM	-11.51
▁solution	-11.5113
▁"1/2"	-11.512
▁static	-11.5155
▁file	-11.5167
[11][11]	-11.5172
▁divisor	-11.5183
INF	-11.5203
▁star	-11.5209
ome	-11.5233
][0])	-11.5236
▁fi	-11.5255
▁startx	-11.5263
▁110;	-11.5289
▁yes	-11.5331
▁votes	-11.5356
((3	-11.5383
os	-11.5399
ed	-11.5403
▁el	-11.543
▁rep	-11.5434
sub	-11.5446
▁1000000	-11.5456
▁lena	-11.5473
3[	-11.5473
level	-11.5483
[505]	-11.5484
output	-11.5488
▁ones	-11.5502
▁fy	-11.5507
best	-11.5508
▁Pi	-11.5511
▁fix	-11.5533
▁lucky	-11.5556
alue	-11.5562
poly	-11.5571
▁50;	-11.5572
▁"+";	-11.5573
▁ys	-11.5575
type	-11.5576
▁65	-11.5577
EASY	-11.5587
▁7);	-11.5588
ARD	-11.5596
isgro	-11.5614
▁100005;	-11.5619
▁"1/3"	-11.5621
▁"2/3"	-11.5621
▁"5/6"	-11.5621
▁26)	-11.563
............|"	-11.5637
[150]	-11.5639
▁minus	-11.5647
▁numOps	-11.5657
▁'!')	-11.5664
.#.#.#.	-11.5677
▁names	-11.5679
▁999999	-11.569
▁previous	-11.5714
▁"3"	-11.5718
[2].	-11.5742
▁root	-11.5743
▁31;	-11.575
▁was	-11.5753
▁speed	-11.5768
▁state	-11.5776
▁gl	-11.578
▁limit	-11.5797
▁bl	-11.5863
tp	-11.5869
▁I	-11.5874
...........	-11.5886
jj	-11.5905
dem	-11.5917
▁250	-11.5938
1(	-11.5941
▁qq	-11.5974
)1	-11.5982
▁36	-11.6005
Len	-11.6017
owel	-11.6026
npos	-11.6039
current	-11.6062
loc	-11.6067
▁sx	-11.608
..............|"	-11.6094
[2000]	-11.6098
ajout	-11.61
match	-11.6102
[4])	-11.6107
▁status	-11.6112
Bulbasaur	-11.6113
Impossible	-11.6113
impossible	-11.6113
status	-11.6115
dep	-11.6124
▁"***"	-11.6128
active	-11.613
[210]	-11.6142
▁">"	-11.6173
▁'2')	-11.6181
[2][	-11.6194
▁"<"	-11.6203
perm	-11.622
[200010]	-11.6232
▁buf	-11.6232
[111]	-11.6253
----------------	-11.6297
▁del	-11.6336
▁'\0'	-11.6336
▁save	-11.6367
▁sumr	-11.6368
▁cond	-11.6375
#.#.#.#.#.#.|.|"	-11.638
▁area	-11.6395
(8	-11.6405
▁rot	-11.645
▁10000	-11.6458
▁money	-11.6483
sx	-11.6495
0);	-11.6512
]];	-11.6515
_1	-11.6536
Num	-11.6542
▁360;	-11.655
▁exe	-11.6556
3++;	-11.6569
ve	-11.657
--------+"	-11.6587
▁','	-11.6602
▁words	-11.6607
1));	-11.6614
▁answers	-11.6614
▁nex	-11.6616
▁100000000	-11.665
▁sc	-11.665
book	-11.666
[305]	-11.6669
grid	-11.6672
("-1")	-11.6674
▁pl	-11.6682
▁CUR	-11.6682
sy	-11.6685
▁dot	-11.6688
▁loss	-11.6695
lucky	-11.6705
(360	-11.6718
▁salt	-11.6739
▁hasil	-11.675
▁122)	-11.675
[5000]	-11.6766
▁atoi	-11.6768
18)	-11.6774
▁both	-11.6774
▁25)	-11.6774
▁sm	-11.681
▁1000000009	-11.6816
ada	-11.6818
tim	-11.6818
▁MN	-11.6827
▁"4"	-11.6868
▁participants	-11.6872
▁values	-11.6896
-1	-11.6914
▁endy	-11.6916
▁ver	-11.6922
▁steps	-11.6999
...........|"	-11.7009
▁(7	-11.7028
▁fx	-11.7057
fs	-11.7121
ing	-11.7133
4)	-11.7138
▁360	-11.7148
▁ats	-11.7162
▁clo	-11.7173
▁req	-11.7179
▁jum	-11.7203
('-')	-11.7219
Found	-11.7243
Elephant	-11.7257
aeiou	-11.7257
Bear	-11.7257
fffffff	-11.7258
Sort	-11.7258
[1001][1001]	-11.726
("0")	-11.7263
[1005][1005]	-11.7265
▁"1	-11.7265
("1")	-11.7271
▁miny	-11.7277
▁bottles	-11.7278
▁poly	-11.7281
▁qtb	-11.7282
[100009]	-11.7292
▁loct	-11.7294
▁90)	-11.7305
square	-11.7312
2));	-11.7318
▁frest	-11.7326
'}	-11.7345
............	-11.7345
▁bottom	-11.7369
▁2}	-11.737
▁team	-11.7377
▁bob	-11.7387
▁answ	-11.7399
▁bills	-11.7418
cup	-11.7426
tstep	-11.7426
be	-11.7443
▁92	-11.7447
2])	-11.7456
▁whichPosn	-11.7457
▁oven	-11.7469
▁stones	-11.7472
rest	-11.7481
▁1},	-11.7487
▁that	-11.7487
▁present	-11.7487
ver	-11.754
primes	-11.7552
(8);	-11.7564
startx	-11.7565
#.#.#.|.|)"	-11.758
▁48)	-11.7604
▁mxv	-11.7604
[52]	-11.7613
▁gg	-11.7616
.#.#.#.#.#.#.	-11.7625
▁180)	-11.7641
▁mo	-11.7645
gu	-11.7651
▁endx	-11.7652
▁sumz	-11.7653
]]]	-11.7655
#.#.#.#.#.#.#.	-11.7667
▁zz	-11.768
▁dd	-11.7693
cc	-11.7698
▁tar	-11.7732
read	-11.7776
olume	-11.7809
)));	-11.7809
mi	-11.7814
[35]	-11.7837
'\	-11.7859
▁ad	-11.7864
[1000006]	-11.7869
#.#.#.#.#.|.|"	-11.7874
[1][2])	-11.7876
oyomi	-11.7882
▁"-";	-11.7884
[5005]	-11.7886
▁merge	-11.7895
[13]	-11.7897
▁'|'	-11.7897
[40]	-11.7897
vv	-11.7911
][3]	-11.7913
▁amount	-11.7922
▁Find	-11.7928
▁Set	-11.793
fixed	-11.7932
▁'3')	-11.7932
▁27)	-11.7949
edge	-11.795
▁player	-11.795
good	-11.7963
▁cards	-11.7973
▁ms	-11.7974
▁large	-11.7981
lessons	-11.7982
colom	-11.7982
▁vs	-11.8003
aa	-11.8013
eaten	-11.8032
▁password	-11.8037
ous	-11.8056
criba	-11.806
Ans	-11.8064
ial	-11.8067
marks	-11.8077
▁Cnt	-11.8079
▁hor	-11.8088
[1000001]	-11.8107
3.	-11.8112
▁dr	-11.8114
▁cot	-11.8191
▁posy	-11.8197
▁compute	-11.8209
2["	-11.8238
[10	-11.8301
▁inch	-11.831
#.#.#.#.|.|"	-11.8317
▁dg	-11.8319
▁compare	-11.832
-";	-11.8349
▁fff	-11.8359
▁24;	-11.8376
[1]))	-11.8387
▁1][0])	-11.8409
▁captain	-11.8419
("")	-11.8427
▁cx	-11.8432
▁'/'	-11.8436
▁"4";	-11.8453
adj	-11.8478
[10001]	-11.8484
(5	-11.8523
INPUT	-11.8549
OUTPUT	-11.8549
Alien	-11.8549
[0]]	-11.8552
▁xmax	-11.8558
▁type	-11.8564
▁func	-11.8568
ULL	-11.8568
▁5001;	-11.858
▁25;	-11.8589
mas	-11.8589
▁banyak	-11.86
counts	-11.8601
encont	-11.8605
1["	-11.861
▁'}')	-11.861
high	-11.8619
▁inches	-11.8633
ash	-11.8636
▁**	-11.8646
'])	-11.8652
▁box	-11.8666
▁rows	-11.8668
▁liter	-11.8672
▁remaining	-11.8674
fact	-11.8694
▁distanc	-11.8696
joy	-11.8697
side	-11.8698
[2]++;	-11.8699
pass	-11.87
▁11	-11.8707
▁vest	-11.8718
_0	-11.8728
▁stone	-11.8735
()))	-11.8744
▁parent	-11.8746
▁220	-11.875
.........|"	-11.8761
TO	-11.8764
▁55;	-11.8764
▁done	-11.877
▁tree	-11.8772
▁'>')	-11.8774
32	-11.8794
(26	-11.88
▁Sum	-11.8804
..........|"	-11.8807
▁loc	-11.883
0.0)	-11.8849
▁have	-11.8854
▁record	-11.8864
▁(*	-11.8888
▁1][2])	-11.8892
all	-11.8899
▁matriz	-11.8905
▁ep	-11.8919
▁acc	-11.8927
▁pv	-11.894
▁indx	-11.8982
▁chess	-11.8999
pf	-11.9001
▁remainder	-11.9002
▁!(	-11.901
▁summ	-11.902
-"	-11.9032
ap	-11.9033
▁home	-11.9038
▁tr	-11.9082
.............	-11.9109
answer	-11.9109
▁ref	-11.9175
▁99999999	-11.9205
▁cntr	-11.9211
eak	-11.9223
layer	-11.9231
▁ysum	-11.9258
▁sir	-11.9258
[15][15]	-11.9263
[10000000]	-11.9269
[5001]	-11.9269
▁Way	-11.9273
▁grest	-11.9279
▁comb	-11.9281
moves	-11.93
▁2147483647	-11.9302
[1111]	-11.9305
▁trans	-11.931
▁sumy	-11.931
▁sw	-11.9311
▁divis	-11.9311
▁Need	-11.9312
▁person	-11.9313
▁choose	-11.9313
Alex	-11.9324
-8	-11.9333
▁face	-11.9337
false	-11.9337
ff	-11.935
▁coord	-11.9354
qmarks	-11.9357
▁qpow	-11.9369
▁tabl	-11.9381
▁Cmp	-11.9384
▁spec	-11.9388
tem	-11.9389
▁(4	-11.939
▁leaf	-11.9401
br	-11.9405
▁"7";	-11.9412
▁cha	-11.9439
▁jumlahg	-11.9442
store	-11.9443
▁prea	-11.9444
▁cakes	-11.9451
86400	-11.9462
diag	-11.9473
big	-11.9473
▁Blue	-11.9473
med	-11.9476
remainder	-11.9477
dir	-11.9484
▁games	-11.9485
go	-11.95
palindrome	-11.9511
▁An	-11.9512
pri	-11.9514
▁gesture	-11.9519
▁qua	-11.9522
▁raw	-11.9525
table	-11.9532
▁angle	-11.9546
pp	-11.9561
[1000][100	-11.9581
1.0	-11.959
]]--;	-11.9609
pe	-11.9627
▁alt	-11.9637
ope	-11.9653
▁ganjil	-11.9655
flog	-11.9678
ms	-11.969
opt	-11.9695
▁hang	-11.9696
ly	-11.9722
▁3.1415926535	-11.9755
▁cel	-11.976
ax	-11.9772
▁"-"	-11.9825
eque	-11.9841
pr	-11.9843
▁getli	-11.9954
▁"="	-11.9962
/	-11.998
▁take	-11.9985
▁den	-12.0011
▁16	-12.0012
▁ymin	-12.0016
zhuangtai	-12.0032
3372036854775807	-12.0032
Letter	-12.0032
[100007]	-12.0032
[50][50]	-12.0033
ha	-12.0034
[200][200]	-12.0035
[2][1])	-12.0042
sh	-12.0043
▁query	-12.0043
[1100]	-12.0055
(*	-12.0058
(':')	-12.0067
#.#.#.#.#.|	-12.0071
and	-12.0073
▁1.0))	-12.0076
ls	-12.0076
▁slogan	-12.0085
00005;	-12.0095
▁10000000;	-12.0097
▁pod	-12.01
▁mmax	-12.0109
▁udmoves	-12.0111
[1002]	-12.0113
[100100]	-12.012
[100002]	-12.0128
▁normal	-12.0128
Au	-12.0159
RI	-12.0164
▁bal	-12.0167
▁chris	-12.0168
fb	-12.0171
▁120;	-12.0197
▁of	-12.0214
perat	-12.0235
key	-12.0242
tab	-12.025
command	-12.0256
▁mask	-12.0257
▁andd	-12.0258
dig	-12.0279
edges	-12.0279
winner	-12.028
prog	-12.0288
▁9999999	-12.0292
money	-12.0299
Min	-12.03
fingers	-12.0301
▁old	-12.0314
asd	-12.0327
▁numer	-12.0333
▁siz	-12.0347
▁mishka	-12.0351
▁0.5	-12.0352
ncr	-12.0355
▁node	-12.0367
NS	-12.0381
▁bisa	-12.0387
▁ds	-12.0393
▁crew	-12.0394
▁he	-12.0425
▁sec	-12.0436
▁lef	-12.0436
▁29	-12.0447
▁200001	-12.0449
hel	-12.0451
dot	-12.0467
%	-12.0472
bak	-12.0488
numbers	-12.0509
LO	-12.0522
dy	-12.053
hh	-12.0546
(6)	-12.0547
▁(__	-12.058
▁palindrome	-12.061
▁deq	-12.0652
▁"")	-12.0653
(12)	-12.0672
WBWBWBW	-12.068
(4	-12.069
▁ope	-12.0707
seen	-12.0713
to	-12.0727
con	-12.0739
ng	-12.0739
eros	-12.0759
..............	-12.0771
▁sumc	-12.0793
▁upd	-12.0804
ector	-12.0841
2[0];	-12.0847
▁di	-12.0849
rado	-12.0859
▁1][1])	-12.0865
showpoint	-12.0865
Read	-12.0866
▁loser	-12.0875
▁given	-12.0875
▁pause	-12.0875
▁geek	-12.0876
▁voters	-12.0876
▁boost	-12.0878
▁1000010;	-12.0878
ulate	-12.0881
▁1000005;	-12.0883
▁towels	-12.0886
▁ay	-12.0888
▁sumB	-12.0888
[2002]	-12.0906
ped	-12.0918
Inc	-12.0919
▁danik	-12.0919
▁decrypt	-12.0921
▁100010;	-12.0927
▁nama	-12.0945
▁sumA	-12.0949
buil	-12.0951
numberOfElements	-12.0956
XXX	-12.0958
▁200000)	-12.0961
▁maxlen	-12.0965
▁lzl	-12.0965
8")	-12.0965
▁people	-12.0968
even	-12.0987
▁tims	-12.0987
▁dest	-12.0991
▁finall	-12.0992
(4);	-12.1008
▁act	-12.1012
oy	-12.1013
▁difference	-12.1019
▁card	-12.1021
▁kkk	-12.1024
▁19)	-12.1025
▁numver	-12.103
hur	-12.1035
▁(3	-12.1046
▁bak	-12.1054
▁biao	-12.1061
▁biaoji	-12.1066
▁height	-12.1069
▁18	-12.1069
▁U	-12.107
▁30)	-12.1074
▁prevc	-12.1079
▁palin	-12.1082
▁suff	-12.109
▁suf	-12.109
[31]	-12.1092
post	-12.1096
erate	-12.1102
Ch	-12.1141
[4][4]	-12.1147
▁ways	-12.1149
▁nadj	-12.1158
▁misha	-12.1166
▁interval	-12.1166
{}	-12.1177
▁same	-12.1178
Mod	-12.1186
▁xmin	-12.1196
[0]['	-12.1196
from	-12.1196
▁Map	-12.1218
chess	-12.1224
▁32)	-12.1244
▁lie	-12.1249
▁pe	-12.1251
▁kanan	-12.1259
▁carry	-12.1268
▁"1/6"	-12.1279
▁ctx	-12.1282
▁posx	-12.1283
itr	-12.1284
▁depth	-12.1308
▁black	-12.1308
▁run	-12.1327
▁cmd	-12.1344
▁jj	-12.1344
▁Cb	-12.1348
fix	-12.1367
▁pairt	-12.1397
)))	-12.142
ay	-12.1429
15;	-12.1445
tam	-12.1448
File	-12.1462
pq	-12.1473
th	-12.1486
▁ud	-12.1487
▁'9';	-12.1494
)]	-12.1494
Count	-12.1499
el	-12.1529
▁isp	-12.1537
oma	-12.1542
▁(-1	-12.1558
[-1]	-12.1565
▁cad	-12.1584
#.#.#.|.|"	-12.1608
bit	-12.1665
])]++;	-12.1692
▁square	-12.1712
OT	-12.1719
▁32	-12.1738
▁lsum	-12.1741
function	-12.1775
TOWARDS	-12.1775
Contest	-12.1775
require	-12.1775
▁1][2]))	-12.1775
[35][35]	-12.1775
Factor	-12.1775
Gym	-12.1775
▁jarak	-12.1784
▁least	-12.1785
▁prohibited	-12.1785
sert	-12.1786
▁friends	-12.1791
[103]	-12.1806
▁End	-12.1808
ank	-12.181
as	-12.182
[20002	-12.1822
▁'_')	-12.1828
▁1010;	-12.1832
colors	-12.1836
▁army	-12.1837
eight	-12.1838
▁numedges	-12.1846
▁'6')	-12.185
▁1000001;	-12.185
[2]))	-12.1862
[25]	-12.1869
▁']')	-12.1871
pw	-12.1883
▁enemy	-12.1883
▁location	-12.1886
▁maks	-12.1887
▁acum	-12.1901
▁'-'	-12.1909
▁timr	-12.1912
▁10005;	-12.1918
ad	-12.1927
▁linha	-12.1935
dom	-12.194
▁1000)	-12.1941
▁page	-12.1951
▁999999999	-12.196
▁discounts	-12.1964
]].	-12.1969
▁text	-12.1976
inf	-12.1991
ace	-12.2002
▁maxSize	-12.2002
maxs	-12.2017
▁newsum	-12.2032
#.#.#.#.|	-12.2041
ganjil	-12.2044
▁soldier	-12.2046
igu	-12.2047
▁ci	-12.2052
gr	-12.2053
arg	-12.2054
|"	-12.2071
9);	-12.2077
▁maxN	-12.2112
▁nuts	-12.2116
[6	-12.2143
▁ymax	-12.2145
▁hotels	-12.2153
fuel	-12.2157
▁lines	-12.216
terkecil	-12.2164
▁minP	-12.217
[32]	-12.2174
8)	-12.2181
XX	-12.2182
▁vasya	-12.2186
▁ev	-12.219
▁qta	-12.2195
search	-12.2197
▁divs	-12.2206
cap	-12.2215
[20	-12.2223
▁by	-12.2225
buff	-12.2232
items	-12.2233
▁numb	-12.2238
coun	-12.2254
rand	-12.2255
▁fail	-12.2263
[5]);	-12.2265
cad	-12.2274
▁reg	-12.2274
▁head	-12.2295
▁yf	-12.2316
▁buff	-12.2321
abc	-12.2324
▁LO	-12.2326
7);	-12.2327
ul	-12.2339
▁resta	-12.2354
ep	-12.2389
▁foo	-12.2395
(7	-12.24
▁'0']	-12.2411
ong	-12.2417
▁maxs	-12.242
▁cp	-12.2426
[1][1])	-12.2432
▁((1	-12.2433
tri	-12.2438
▁modex	-12.2456
(((3	-12.2476
▁47	-12.2479
▁plen	-12.2484
Mina	-12.2485
▁Get	-12.2529
my	-12.2531
▁de	-12.2535
tt	-12.2585
]][	-12.2621
bs	-12.2622
▁may	-12.2654
▁1][2]	-12.2678
vet	-12.2683
▁((2	-12.2683
▁kq	-12.2689
3[0]	-12.27
5]	-12.2711
Pre	-12.2726
▁modd	-12.2767
Finite	-12.2775
[20200	-12.2775
ostringstream	-12.2781
▁qClose	-12.2783
▁inicial	-12.2783
▁shengyu	-12.2783
▁takeoff	-12.2783
▁quotient	-12.2784
▁perColor	-12.2784
▁user	-12.2784
▁smR	-12.2787
▁largest	-12.279
▁numero	-12.279
▁differ	-12.279
[1000010]	-12.2794
▁1000003;	-12.2795
▁97]++;	-12.2808
▁small	-12.2825
▁part	-12.2828
▁occ	-12.283
votes	-12.2857
▁dict	-12.2859
item	-12.2872
▁inve	-12.2878
▁tag	-12.2885
▁desk	-12.2886
▁220)	-12.2887
▁wait	-12.2897
Str	-12.2903
▁hj	-12.2906
........|"	-12.2912
▁lc	-12.2934
>('	-12.2937
501;	-12.2945
▁fac	-12.2947
▁binary	-12.2965
▁sheets	-12.2976
▁hb	-12.2982
▁ppow	-12.2995
▁sel	-12.3015
▁drink	-12.3025
▁not	-12.3025
▁primos	-12.3027
▁tol	-12.3049
cdays	-12.307
▁fla	-12.3071
▁stop	-12.3072
▁Minb	-12.3096
String	-12.3115
▁Mod	-12.3115
il	-12.3124
▁bao	-12.3131
▁xxx	-12.3136
hang	-12.3144
▁vet	-12.3169
vs	-12.317
▁conv	-12.3176
jumps	-12.3183
▁mode	-12.3193
▁"4	-12.322
currnum	-12.3223
myset	-12.3223
▁maxl	-12.3233
coins	-12.3235
▁maxa	-12.3237
▁cant	-12.3237
▁marks	-12.3239
▁nowp	-12.3255
▁app	-12.3269
#.#.#.#.#.#.|	-12.3276
mnm	-12.3285
game	-12.329
It	-12.3294
▁tmo	-12.3295
Ma	-12.3299
bacterias	-12.3303
ello	-12.3304
gov	-12.3306
matriz	-12.3308
add	-12.3309
▁pd	-12.3311
28	-12.3316
black	-12.3317
depth	-12.3317
fail	-12.3323
compute	-12.3324
fuck	-12.3324
rend	-12.3325
cn	-12.3332
cmd	-12.3333
▁ca	-12.3334
dat	-12.3343
whi	-12.3343
'6'	-12.3367
]++	-12.3386
[2][0])	-12.3389
▁memo	-12.339
▁"+")	-12.3394
▁sss	-12.3395
▁500	-12.3419
▁command	-12.3457
bb	-12.347
▁so	-12.3479
gh	-12.3481
dd	-12.3495
▁dsa	-12.3515
IO	-12.3546
amt	-12.3553
MOD	-12.3561
▁unique	-12.3584
pple	-12.3587
ur	-12.3598
times	-12.3598
#.#.#.#.#.#.#.#.	-12.3604
-7	-12.361
▁te	-12.3613
(1)	-12.3615
▁begin	-12.3633
▁3.14159	-12.3638
(2);	-12.3641
▁multipl	-12.3643
[3].	-12.3661
▁err	-12.3682
▁8);	-12.3692
usa	-12.3702
INT	-12.3711
▁1]]	-12.3712
▁nxt	-12.3714
rd	-12.3717
▁20000	-12.3718
▁64	-12.3733
▁zsum	-12.3743
▁bo	-12.3752
▁gc	-12.376
ast	-12.3805
▁'0'))	-12.3809
(3);	-12.3811
▁pa	-12.3828
[5])	-12.384
.#.#.#.#.#.#.#.|	-12.3852
▁mindis	-12.3864
▁righ	-12.3877
ate	-12.3877
▁::	-12.3882
erosOnes	-12.3886
Infinite	-12.3886
eevee	-12.3886
▁encrypt	-12.3886
▁numPairs	-12.3886
spykeId	-12.3886
[501][501]	-12.3886
▁shapes	-12.3886
malloc	-12.3886
▁reduce	-12.3886
.#.|	-12.3887
▁getNext	-12.3887
▁trump	-12.3887
▁mohi	-12.3888
▁ziro	-12.3888
[1010][1010]	-12.3888
▁column	-12.3889
[100004]	-12.389
Ids	-12.3891
▁mius	-12.3892
[300000]	-12.3893
.#.#.#.#.#.#.|	-12.3894
bru	-12.3894
▁patt	-12.3894
exam	-12.3895
minmum	-12.3896
.#.#.|	-12.3897
.#.|.|"	-12.3897
▁foot	-12.3897
.#.|.|)"	-12.3906
▁bs	-12.3907
.#.#.|.|"	-12.3914
▁INFF	-12.392
.#.#.#.|	-12.3923
lose	-12.3924
▁cols	-12.3928
.#.#.|.|)"	-12.3929
▁cntfloat	-12.3932
[501]	-12.3932
']['	-12.3935
.#.#.#.#.|	-12.3936
▁orange	-12.3936
.#.#.#.#.#.|	-12.3944
▁blu	-12.3947
.#.#.#.|.|"	-12.395
▁blyat	-12.3951
▁nearest	-12.3952
▁capacity	-12.3953
▁horizontal	-12.3954
▁other	-12.3958
▁"8"	-12.3961
.#.#.#.#.|.|"	-12.3964
.#.#.#.#.#.|.|"	-12.397
(((	-12.3974
nger	-12.3976
.#.#.#.|.|)"	-12.3984
tu	-12.3985
req	-12.3992
▁57)	-12.3996
.#.#.#.#.|.|)"	-12.4003
▁maxv	-12.4003
▁only	-12.4007
▁"15	-12.4008
.#.#.#.#.#.|.|)"	-12.4012
▁walk	-12.402
▁loop	-12.4035
},	-12.4039
[10000	-12.4046
▁alph	-12.4047
▁LC	-12.4048
▁5000	-12.4053
▁counta	-12.4055
▁dua	-12.4056
▁1]]++;	-12.408
▁Next	-12.4081
▁satu	-12.4083
▁xorr	-12.4083
▁80;	-12.4097
[3]++;	-12.4102
▁14)	-12.4103
▁prod	-12.4107
▁factors	-12.414
▁Start	-12.4147
mL	-12.4151
▁pntr	-12.4152
3]	-12.4156
▁more	-12.4162
▁free	-12.4164
rt	-12.4169
▁fir	-12.4173
cy	-12.4206
▁pen	-12.4218
4);	-12.4218
▁mole	-12.4226
▁odds	-12.4234
▁taken	-12.4245
▁ops	-12.4261
▁pointer	-12.4288
possible	-12.4292
▁1000000000)	-12.4297
▁ce	-12.4301
▁2.0);	-12.4307
▁sisa	-12.4312
▁xs	-12.4319
▁seg	-12.4322
power	-12.4324
▁csx	-12.4328
getli	-12.4343
ber	-12.4355
▁sag	-12.4356
cp	-12.4368
▁lens	-12.4377
isp	-12.4404
...............	-12.4406
otes	-12.4411
▁prefix	-12.4421
▁pri	-12.4447
▁(10	-12.4457
▁tdiff	-12.4481
▁yb	-12.4484
▁open	-12.4495
(180	-12.4501
[100010	-12.4504
.|	-12.4506
▁ust	-12.4507
▁999	-12.4507
>(	-12.451
flareon	-12.4513
ain	-12.4514
sylveon	-12.4515
leafeon	-12.4515
jolteon	-12.4516
calc	-12.4517
[300]	-12.4518
glaceon	-12.4518
umbreon	-12.4519
Index	-12.4532
▁2000;	-12.4546
record	-12.4554
kanan	-12.4561
crew	-12.4562
carry	-12.4562
slot	-12.4563
save	-12.4563
prefix	-12.4568
"1/6"	-12.4569
MX	-12.457
have	-12.4574
une	-12.4584
seq	-12.4607
lim	-12.4634
▁imax	-12.4642
SI	-12.4658
--])	-12.4661
▁pb	-12.4669
letters	-12.4674
rla	-12.4679
▁fingers	-12.4703
▁23;	-12.4706
▁OO	-12.4709
dor	-12.4715
file	-12.4715
1")	-12.4715
chat	-12.4717
[1	-12.4719
off	-12.472
dsa	-12.4734
▁(8	-12.4736
tmo	-12.4737
mind	-12.4764
▁flagA	-12.4812
chars	-12.4813
7)	-12.4813
▁abc	-12.4814
▁10000000	-12.4814
ngh	-12.4833
mode	-12.4839
▁jjj	-12.4839
▁gla	-12.4843
ive	-12.4854
bule	-12.486
bal	-12.4867
maxN	-12.4869
▁qy	-12.4914
▁colom	-12.4936
def	-12.4939
▁ant	-12.4969
▁'!'	-12.4975
nome	-12.4981
[7	-12.5008
100	-12.501
▁chk	-12.501
resta	-12.5019
Char	-12.502
digits	-12.5021
▁opt	-12.5024
▁maxsum	-12.503
▁jwb	-12.5041
[--	-12.5041
_4	-12.5056
▁To	-12.5063
old	-12.5083
('0')	-12.5085
ength	-12.5086
fin	-12.5092
not	-12.5095
▁proc	-12.5097
Pow	-12.5114
▁1.0)	-12.5115
▁block	-12.5115
▁Output	-12.5136
▁amazing	-12.5136
▁blanco	-12.5136
▁destination	-12.5136
▁maxExcl	-12.5136
▁wynik	-12.5136
▁negro	-12.5136
▁tpresents	-12.5136
▁nogover	-12.5136
▁indimpar	-12.5136
▁momo	-12.5136
▁woch	-12.5136
[200100]	-12.5136
▁salir	-12.5136
▁olnum	-12.5136
▁nrod	-12.5136
▁nilai	-12.5137
▁indpar	-12.5137
▁-2019	-12.5137
▁colCount	-12.5137
▁maxRow	-12.5137
▁minRow	-12.5137
▁modulo	-12.5137
▁tramp	-12.5137
[128]	-12.5138
▁5005;	-12.5138
▁adder	-12.5139
▁minCol	-12.5139
▁maxCol	-12.5139
▁'2'	-12.5142
▁Calc	-12.5143
Mar	-12.5144
▁marge	-12.5151
[6][6]	-12.5154
▁choc	-12.5157
chance	-12.5158
▁kpk	-12.5162
sir	-12.5178
tttt	-12.5179
▁200000	-12.5186
popcount	-12.5191
▁lvl	-12.5201
del	-12.5204
▁boxes	-12.5207
▁characters	-12.521
▁denominator	-12.521
oys	-12.5212
rs	-12.5214
▁larger	-12.5233
▁caso	-12.5235
dfs	-12.5242
▁stck	-12.5244
ol	-12.525
trig	-12.5252
8"	-12.5261
▁"|.|"	-12.5262
#.#.#.#.#.	-12.5264
▁"|.|)"	-12.5264
▁29;	-12.5265
▁"+"	-12.5271
ers	-12.5276
▁buffer	-12.5283
▁posiciones	-12.5285
▁beginat	-12.5289
▁medals	-12.5292
1--	-12.5298
tation	-12.5298
[2010]	-12.5301
ele	-12.5306
▁four	-12.5307
▁buy	-12.5308
[301]	-12.5308
▁lft	-12.5315
▁256	-12.532
▁nextPrime	-12.5323
ones	-12.5327
ca	-12.5349
▁round	-12.535
▁remain	-12.5351
[1][0])	-12.5352
▁orgStr	-12.5357
▁pangkat	-12.5361
▁NULL	-12.5366
hess	-12.5386
▁rprev	-12.5395
▁restaurants	-12.5397
▁lat	-12.5405
cond	-12.5409
▁minm	-12.5424
▁2005]	-12.5424
▁Move	-12.5425
▁mass	-12.5435
▁200010	-12.5449
▁coty	-12.5472
▁xb	-12.5481
▁{100	-12.5482
▁hangx	-12.5482
▁rtn	-12.5482
▁MAXT	-12.5487
"[]"	-12.5493
pro	-12.5501
▁sd	-12.5516
▁candidate	-12.5525
▁precision	-12.5531
ns	-12.5541
▁jol	-12.558
▁10))	-12.5595
.#.#.	-12.5611
▁24)	-12.5613
▁pas	-12.5629
▁nas	-12.5643
▁maps	-12.5652
▁ha	-12.5662
▁locg	-12.5667
▁palabra	-12.5669
▁band	-12.5675
.0	-12.5684
maxm	-12.5687
XL	-12.5695
our	-12.5696
▁sorted	-12.571
▁2000000000	-12.5725
[2][2])	-12.5739
▁nam	-12.5752
uy	-12.5786
▁countb	-12.5787
cha	-12.5792
[20000]	-12.5797
▁fuck	-12.5823
1[1]++;	-12.5852
00	-12.5859
distance	-12.5891
Total	-12.5902
▁gov	-12.5904
cycle	-12.5937
lights	-12.5952
anges	-12.5952
▁as	-12.5962
sol	-12.5968
limit	-12.5969
bulb	-12.5974
func	-12.5974
▁2]);	-12.5978
mishka	-12.5979
palabra	-12.5982
hotels	-12.5982
sorted	-12.5985
path	-12.5987
▁tmpb	-12.5992
locg	-12.5996
vote	-12.6013
'9'	-12.6018
Map	-12.602
ame	-12.6021
node	-12.603
Primes	-12.6031
▁4))	-12.6036
-6	-12.6042
ece	-12.605
pd	-12.6079
240	-12.6085
▁(-1);	-12.609
raw	-12.6107
hase	-12.6108
▁dc	-12.612
ount	-12.6129
1[0])	-12.6139
▁era	-12.6141
▁rs	-12.6153
[3000]	-12.616
oven	-12.6167
sup	-12.6177
so	-12.6178
▁tempm	-12.619
▁32);	-12.6196
words	-12.62
▁tow	-12.622
▁5))	-12.6231
▁63	-12.6231
ark	-12.6257
▁mmin	-12.6259
▁'8'))	-12.6273
(3)	-12.6306
)]++;	-12.6306
▁maxcount	-12.6335
▁128	-12.6335
▁1)));	-12.6335
▁niz	-12.6337
▁bits	-12.6341
gree	-12.6345
▁13	-12.6356
-10;	-12.6358
indx	-12.6362
che	-12.6365
shel	-12.6365
▁Num	-12.6383
▁pB	-12.6393
{0}	-12.6398
▁-100	-12.643
us	-12.643
▁gb	-12.6447
▁cntb	-12.6451
▁4)]	-12.6457
rows	-12.6464
far	-12.647
ree	-12.6472
▁la	-12.6473
▁arra	-12.6497
01	-12.6536
▁1)))	-12.6536
uantity	-12.6554
▁99	-12.6559
State	-12.6563
klmnopqrstuvwxyz	-12.6564
Delete	-12.6564
debug	-12.6564
wheniEndFromLeft	-12.6564
▁"0123456789"	-12.6564
▁CityCode	-12.6564
▁occurances	-12.6564
dryer	-12.6564
▁NumOf	-12.6564
Union	-12.6564
▁girl	-12.6564
▁starCount	-12.6564
▁Init	-12.6565
Exp	-12.6565
[30010]	-12.6566
▁masha	-12.6566
seg	-12.6568
.|.|"	-12.657
nextprev	-12.657
xt	-12.6571
"8<"	-12.6572
here	-12.6573
▁pick	-12.6573
▁Long	-12.6579
verse	-12.6586
▁kecil	-12.6609
▁gp	-12.661
▁goo	-12.6613
[111111]	-12.6619
▁lenp	-12.6622
Cu	-12.6625
nOven	-12.6635
▁trunc	-12.6642
▁iskom	-12.6643
▁Green	-12.6643
▁izq	-12.6644
▁highest	-12.6645
▁Red	-12.6646
26	-12.6649
▁1}}	-12.665
▁cyc	-12.6652
▁groups	-12.6654
▁hari	-12.6657
▁4000	-12.6659
▁bill	-12.6668
▁blockb	-12.667
▁limak	-12.6674
▁lime	-12.6674
▁minA	-12.6676
5)	-12.6676
▁gs	-12.6683
▁umb	-12.6692
▁7))	-12.6694
▁elements	-12.6698
▁jav	-12.6699
▁less	-12.67
▁100011	-12.6703
lt	-12.6713
▁hush	-12.6717
▁wrong	-12.673
▁aramic	-12.673
▁norm	-12.6731
▁valori	-12.6733
▁gcdofarray	-12.6733
▁passengers	-12.6734
▁divisores	-12.6734
▁texto	-12.6735
[1050]	-12.6741
▁(-1)	-12.6744
su	-12.676
▁viii	-12.6777
▁matri	-12.6779
tCo	-12.6782
▁reversed	-12.6785
▁slice	-12.6788
di	-12.6799
▁mcd	-12.68
▁31)	-12.68
▁city	-12.6803
(2.0	-12.6807
▁blocka	-12.681
▁MD	-12.681
▁cCount	-12.6819
ey	-12.6819
▁profits	-12.682
▁posibles	-12.6821
▁rides	-12.6825
▁reading	-12.6825
DP	-12.6834
▁cube	-12.6836
▁ro	-12.6842
▁scored	-12.6848
▁sho	-12.6849
▁maxnum	-12.685
▁dic	-12.685
▁letterx	-12.6857
ena	-12.6866
uck	-12.6867
▁10000000000000	-12.687
▁rate	-12.6874
▁stud	-12.6891
Colo	-12.6904
▁busca	-12.6908
▁Yellow	-12.6909
▁syl	-12.691
▁36)	-12.6911
▁9999999999	-12.6912
rlen	-12.6912
po	-12.6915
▁10000000000;	-12.6918
▁((((	-12.6923
egi	-12.6935
▁recur	-12.6945
▁minval	-12.6979
▁tri	-12.6981
1[3]	-12.699
▁xsum	-12.6994
(5);	-12.7001
▁welfare	-12.7001
[0]))	-12.7005
▁prim	-12.703
▁gmax	-12.7034
▁od	-12.7037
▁stat	-12.7045
▁flat	-12.7046
te	-12.7068
▁sym	-12.7079
▁lett	-12.7082
▁target	-12.7087
▁neo	-12.7098
▁timer	-12.7099
▁anton	-12.71
▁rank	-12.7101
▁maxC	-12.7134
▁nike	-12.7137
▁1000000000000	-12.714
▁load	-12.7153
fff	-12.7166
▁rr	-12.717
[3]))	-12.7186
▁1000000001	-12.7188
▁1]));	-12.7196
cess	-12.7223
▁fim	-12.7239
▁ho	-12.7248
▁slot	-12.7277
"))	-12.7278
duo	-12.7317
dis	-12.7334
imak	-12.7345
ry	-12.7345
▁tra	-12.7356
nom	-12.7359
▁kh	-12.738
.......|"	-12.7381
gl	-12.7389
Up	-12.7389
▁mot	-12.7411
.#.#.#.#.#.#.#.	-12.7413
two	-12.7423
▁maxc	-12.743
▁2000	-12.7442
Size	-12.7447
cmn	-12.7496
mmin	-12.7497
▁'}'	-12.7497
▁digits	-12.7505
eg	-12.7506
stack	-12.7521
▁amt	-12.7532
500;	-12.7542
100;	-12.7544
month	-12.7552
▁suc	-12.7562
▁2005	-12.7563
#.#.#.|	-12.7568
present	-12.7572
▁his	-12.7579
▁slen	-12.7581
order	-12.7583
'8'	-12.7583
load	-12.7586
angle	-12.7588
extra	-12.7596
▁jump	-12.7599
ases	-12.76
participants	-12.7611
▁ptr	-12.7613
speed	-12.7617
state	-12.7624
lock	-12.7627
gesture	-12.7631
▁man	-12.7632
discount	-12.7632
interval	-12.7633
▁possible	-12.7634
anton	-12.7638
misha	-12.7639
pointer	-12.7642
toalha	-12.7648
target	-12.7649
▁ab	-12.7651
'7'	-12.7658
rank	-12.7673
same	-12.7675
seed	-12.7698
vasya	-12.7699
▁-1000	-12.7706
▁asc	-12.7713
fun	-12.7713
tree	-12.7715
nike	-12.7716
qta	-12.7717
ust	-12.772
commands	-12.7724
▁fp	-12.7741
prim	-12.7743
▁ke	-12.7764
point	-12.7765
starty	-12.7766
▁multi	-12.7793
bao	-12.7793
lett	-12.7809
xay	-12.7822
works	-12.7847
▁most	-12.786
▁cd	-12.7871
▁li	-12.7871
▁cpy	-12.788
sec	-12.7892
▁mpu	-12.7893
clock	-12.7893
_1(	-12.7901
bo	-12.7932
▁1][3]	-12.7937
▁"|.|	-12.7947
▁iso	-12.7966
][2	-12.7967
▁subtraction	-12.8005
▁mins	-12.8005
▁faktor	-12.8016
▁las	-12.8037
▁2.0)	-12.8111
▁'{'	-12.8115
▁chars	-12.8126
neo	-12.813
▁50)	-12.8134
68	-12.8144
ities	-12.8152
▁ccw	-12.8168
▁perm	-12.8185
ali	-12.8188
Prime	-12.8192
▁"|.|)	-12.8206
Star	-12.8209
[8	-12.8211
▁pack	-12.8221
Same	-12.8223
17;	-12.8224
4[	-12.8227
▁denomina	-12.8231
▁leaves	-12.8231
Diamond	-12.8231
[2100][2100]	-12.8231
bohlam	-12.8231
▁connected	-12.8231
▁direcciones	-12.8231
▁fristOven	-12.8231
▁lunchBreakTime	-12.8231
▁ndmny	-12.8231
▁notebooks	-12.8231
▁perRowColor	-12.8231
▁supply	-12.8231
▁tambah	-12.8231
▁thisChar	-12.8231
(":")	-12.8231
▁DashaCount	-12.8231
▁MODULO	-12.8231
▁perlas	-12.8231
[300][300]	-12.8231
▁cadena	-12.8231
totalSec	-12.8231
.141592653589793	-12.8231
[5001][5001]	-12.8231
▁chrColor	-12.8231
▁alana	-12.8231
ossib	-12.8231
▁blocked	-12.8231
termina	-12.8231
[3005]	-12.8232
▁tagua	-12.8232
[200009]	-12.8232
[1024]	-12.8233
▁maxgro	-12.8233
▁1000006;	-12.8234
[5002]	-12.8234
sinoutput	-12.8234
wincandidate	-12.8236
Flag	-12.8236
[109]	-12.8236
testcases	-12.8237
Po	-12.8238
▁mean	-12.8239
▁dead	-12.8239
▁pict	-12.824
▁maxPrime	-12.8246
▁lowar	-12.8246
[1004]	-12.8252
▁agua	-12.8253
strgro	-12.8255
▁myC	-12.8262
Temps	-12.8268
▁winA	-12.827
▁prevI	-12.8272
isFound	-12.8273
eek	-12.8274
▁ttwo	-12.8276
▁fpb	-12.8278
▁uper	-12.8279
vocale	-12.8281
▁-10;	-12.8287
Big	-12.8292
replaced	-12.8294
correct	-12.8294
▁444	-12.8297
▁hot	-12.8297
300005	-12.8304
▁quit	-12.8307
▁getNum	-12.8307
tar	-12.8313
▁tiga	-12.8317
▁getP	-12.8317
▁insect	-12.8317
▁maxfather	-12.8318
▁esto	-12.8318
▁edits	-12.832
▁besar	-12.832
▁javab	-12.8321
▁bucket	-12.8321
▁borrow	-12.8321
▁diamond	-12.8322
▁added	-12.8322
▁FB	-12.8325
▁bshu	-12.833
lat	-12.8334
LIM	-12.8339
▁currentans	-12.8342
▁buns	-12.8345
▁gro	-12.8364
checke	-12.8367
▁blep	-12.8373
▁maxlevel	-12.8383
▁prep	-12.8383
▁lcp	-12.8386
▁blocks	-12.8386
(100	-12.839
wh	-12.8391
▁sumodd	-12.8396
▁itung	-12.8397
▁curlen	-12.8407
▁Freq	-12.8422
▁tedad	-12.8423
▁tren	-12.8425
▁actual	-12.8425
▁mayor	-12.8426
▁minimun	-12.8427
▁banyakganjil	-12.843
▁5.0)	-12.8433
sPalindrom	-12.8433
▁distinct	-12.8434
▁finishy	-12.8434
▁bef	-12.8434
▁1000000005	-12.8436
▁problems	-12.844
▁cer	-12.8444
▁pearls	-12.8446
▁Counter	-12.8446
▁finishx	-12.8447
ghi	-12.8448
▁300;	-12.8448
wt	-12.8449
▁safe	-12.8453
3_1	-12.8453
flagee	-12.8454
▁bulbs	-12.8454
▁maap	-12.8463
▁sim	-12.8467
isTrue	-12.8469
[250]	-12.8469
▁tep	-12.8472
▁Check	-12.8473
▁le	-12.8475
▁'=')	-12.8476
▁0.5);	-12.8478
mo	-12.8478
des	-12.848
▁Res	-12.848
▁los	-12.8486
▁ry	-12.8494
▁cry	-12.8495
▁press	-12.8496
urantsLunchTimes	-12.8498
▁pages	-12.851
▁years	-12.8511
▁tipe	-12.8522
▁yelo	-12.8522
▁outfile	-12.8527
▁1}	-12.8527
▁spyke	-12.853
▁before	-12.8532
▁PhoneArray	-12.8536
dition	-12.8536
▁boo	-12.8536
▁((3	-12.8537
▁minute	-12.8537
▁hol	-12.8538
od	-12.8547
▁'/')	-12.8562
▁packs	-12.8572
▁yt	-12.8575
▁scoreb	-12.8579
Out	-12.8581
▁sheet	-12.8582
wp	-12.8584
▁boy	-12.8584
▁{"	-12.8584
ttle	-12.8587
▁bul	-12.8588
▁87	-12.8591
▁cities	-12.86
har	-12.8603
ai	-12.8607
▁nimpar	-12.8615
cion	-12.8618
_2;	-12.862
urs	-12.8623
cx	-12.8626
(15	-12.8628
)(1	-12.8628
▁"-")	-12.8641
▁expo	-12.8643
IT	-12.8651
4];	-12.8678
▁ee	-12.8685
▁ten	-12.8686
maxy	-12.8695
12	-12.8711
"6"	-12.8718
▁2.0;	-12.8719
▁(!((	-12.8741
▁piso	-12.8752
▁offset	-12.8757
▁newk	-12.8759
▁10001;	-12.8771
▁kmax	-12.8772
▁100000)	-12.8779
▁Lo	-12.8786
3];	-12.8796
▁prevr	-12.8801
▁62;	-12.881
▁discount	-12.8826
▁seed	-12.8831
_2(	-12.8838
▁maxval	-12.884
io	-12.8841
▁toalha	-12.8849
uf	-12.8851
▁pred	-12.8854
plen	-12.8883
▁infile	-12.8883
candidate	-12.8884
demy	-12.8915
nor	-12.8916
▁28)	-12.8925
▁order	-12.8926
maxNum	-12.8926
ke	-12.8927
▁Primes	-12.8946
▁commands	-12.8948
▁nod	-12.8955
▁'6'	-12.8962
▁path	-12.8963
▁suml	-12.8974
tm	-12.9006
▁lastm	-12.9024
ce	-12.9031
▁"..............	-12.9036
cun	-12.904
▁sumx	-12.9045
44	-12.9051
(30	-12.9064
▁Do	-12.9071
▁impar	-12.9076
▁Size	-12.9086
uts	-12.9094
fast	-12.9102
▁nom	-12.9102
▁Index	-12.9109
▁""	-12.9125
▁sam	-12.9127
▁998244353)	-12.9132
▁per	-12.9143
▁')	-12.9155
impar	-12.9159
▁bacterias	-12.9202
[3	-12.9203
("4	-12.9214
cou	-12.9222
SS	-12.9242
('0'	-12.9254
▁npar	-12.926
6)	-12.9263
▁Ch	-12.9279
2[1000]	-12.9281
2]++;	-12.9323
▁say	-12.9324
Temp	-12.9348
strc	-12.9358
minx	-12.9363
▁sumd	-12.9366
ata	-12.9376
iro	-12.9377
▁anses	-12.9382
tempm	-12.9404
▁49	-12.9408
▁thi	-12.9416
ept	-12.9417
comp	-12.9418
▁curAn	-12.9426
▁lin	-12.9427
mima	-12.9444
▁ye	-12.9445
Digit	-12.9447
ute	-12.9447
stringstream	-12.9461
▁ny	-12.9464
hap	-12.9478
9999999999	-12.9478
▁numD	-12.948
kk	-12.948
change	-12.9492
floor	-12.9501
ratio	-12.9502
light	-12.9503
way	-12.9512
cmx	-12.9518
In	-12.9529
matches	-12.9539
▁97]	-12.9543
cell	-12.9544
estC	-12.9544
▁(0)	-12.9558
li	-12.9559
drink	-12.9561
three	-12.9567
▁"*"	-12.9568
dc	-12.9577
shu	-12.9591
dishes	-12.9597
ab	-12.9605
vocal	-12.9612
[4	-12.9613
stone	-12.9617
000000	-12.9617
▁vm	-12.9623
soldier	-12.9627
parent	-12.9627
Blue	-12.9628
numa	-12.9629
hole	-12.963
welfare	-12.9633
did	-12.9641
offset	-12.9641
piso	-12.9645
▁pm	-12.9646
memo	-12.9653
floors	-12.966
esp	-12.9667
10)	-12.9669
stones	-12.9672
suff	-12.9686
▁ww	-12.9688
▁3))	-12.9691
pb	-12.9704
'][	-12.9708
▁')'	-12.9715
▁kw	-12.9716
▁gh	-12.9724
shap	-12.9727
has	-12.9738
▁pt	-12.9751
Pos	-12.9788
1]++;	-12.9827
subs	-12.9833
[200	-12.9839
▁LL	-12.985
demx	-12.9858
▁maxr	-12.9861
ak	-12.9892
sm	-12.9911
▁winC	-12.9919
▁1222	-12.9925
0.0	-12.9962
▁jmin	-12.9983
................	-12.9983
AL	-12.9985
▁fastM	-12.9993
7(	-12.9996
▁Ad	-12.9999
NA	-13.0004
asc	-13.0021
▁99999999999	-13.0032
ize	-13.0043
▁vl	-13.007
▁(_	-13.0071
pal	-13.0106
thing	-13.011
▁':'	-13.0116
▁tlen	-13.0125
▁back	-13.0129
▁"1/1	-13.0143
▁equ	-13.0147
ment	-13.0148
ceils	-13.0153
isit	-13.0162
[30000	-13.017
▁eat	-13.0174
▁minb	-13.0181
Player	-13.0184
20	-13.0185
isited	-13.0204
Ca	-13.0206
▁40;	-13.0218
▁getPr	-13.022
empo	-13.0226
lumn	-13.023
6744073709551615	-13.0231
6789	-13.0231
SEC	-13.0231
[300300]	-13.0231
▁cambio	-13.0231
▁conceed	-13.0231
▁diffuclty	-13.0231
▁extreme	-13.0231
▁floorToGo	-13.0231
▁militros	-13.0231
▁minMatch	-13.0231
▁nEven	-13.0231
▁numFour	-13.0231
▁occurrences	-13.0231
▁radius	-13.0231
▁repeticiones	-13.0231
[365]	-13.0231
▁particpant	-13.0231
Multi	-13.0231
▁cross	-13.0231
▁Pedy	-13.0231
▁convert	-13.0231
▁selectionSort	-13.0231
▁width	-13.0231
▁colums	-13.0231
▁mitad	-13.0231
integer	-13.0231
▁spectator	-13.0231
[200007]	-13.0231
▁kuda	-13.0231
erfect	-13.0231
ABS	-13.0231
RAND	-13.0231
[102][102]	-13.0232
▁lowest	-13.0232
[201][201]	-13.0232
▁smaller	-13.0232
081	-13.0232
Array	-13.0232
▁adivb	-13.0233
▁guest	-13.0233
[107]	-13.0234
▁447	-13.0234
▁bdiva	-13.0234
massiv	-13.0235
▁yeet	-13.0235
▁meet	-13.0238
▁lineTime	-13.0238
[26][26]	-13.0239
▁maxWord	-13.0239
▁indG	-13.0245
▁ucont	-13.0249
▁pjg	-13.025
▁sumador	-13.0251
cz	-13.0251
[1003]	-13.0253
gover	-13.0255
maxmum	-13.0262
Stone	-13.0264
▁'='	-13.0266
▁200100	-13.0266
▁65]++;	-13.0268
room	-13.0268
▁100.0)	-13.0268
ctr	-13.027
berOfRestaurants	-13.0273
▁avai	-13.0277
▁477	-13.0278
▁2222;	-13.028
▁indexG	-13.0283
▁plans	-13.0283
▁100000000000000	-13.0285
▁qx	-13.0285
▁yiti	-13.0287
▁tstep	-13.0291
▁arya	-13.0292
▁evensum	-13.0295
▁oddsum	-13.0296
▁474	-13.03
pace	-13.0303
▁"\0"	-13.0303
▁kiri	-13.0312
][2])	-13.0314
▁gas	-13.0325
▁esq	-13.0326
▁dCount	-13.0328
▁prob	-13.0329
▁empat	-13.0329
▁meio	-13.0333
▁vetor	-13.0334
▁inicio	-13.0334
▁CASE	-13.0335
▁kiek	-13.0336
▁revStr	-13.0337
▁reqrec	-13.0337
▁curDay	-13.0338
▁secnumbs	-13.0338
▁numOfteams	-13.0339
▁noOfprizes	-13.0339
▁secretary	-13.0339
▁numofelements	-13.034
▁complexity	-13.034
▁phnum	-13.034
▁secretaryNum	-13.034
(97	-13.0343
prize	-13.0346
▁menorB	-13.0348
▁Ncoins	-13.035
▁400;	-13.0351
cei	-13.0354
▁winB	-13.0358
tdiff	-13.0362
▁shelb	-13.0364
999999999	-13.0369
isplay	-13.0373
gg	-13.0375
▁currgcd	-13.0375
13579"	-13.0375
▁chores	-13.0384
Neg	-13.0384
▁1.0);	-13.0387
▁24	-13.0387
rx	-13.0388
▁nomer	-13.0391
[300001]	-13.0393
▁'{')	-13.0396
▁ve	-13.0412
pol	-13.0425
nsp	-13.0439
▁Roz	-13.0448
▁zuo	-13.0459
ect	-13.0465
▁smallest	-13.0469
▁triangle	-13.0477
odo	-13.0477
[1500]	-13.0479
▁cake	-13.048
2[0]])	-13.0481
600;	-13.0483
(210)	-13.0492
cases	-13.05
▁17)	-13.0502
▁seven	-13.0503
▁maxer	-13.0504
▁opr	-13.0506
▁zerocnt	-13.0508
▁stars	-13.0509
▁ttem	-13.0514
oll	-13.0521
▁'3'	-13.0525
▁crest	-13.0525
▁maxLen	-13.0526
▁BS	-13.0529
▁'0']++;	-13.0534
▁NP	-13.054
▁-1000000000	-13.0546
▁mapper	-13.0547
▁1000);	-13.0549
1])	-13.0557
▁chore	-13.0563
▁mayu	-13.0571
▁lasth	-13.0595
▁exc	-13.06
▁esPrimo	-13.0601
[5	-13.0605
▁faktori	-13.0606
ww	-13.0609
▁lift	-13.0618
▁vct	-13.0624
elves	-13.0628
▁qiu	-13.0639
▁"."	-13.0639
ub	-13.0648
(100001	-13.0649
▁kiu	-13.0649
[1007]	-13.065
▁wong	-13.0663
▁RE	-13.0665
▁1001	-13.0672
ogo	-13.0678
▁Ex	-13.0678
|)	-13.0683
▁sta	-13.0694
ts	-13.0695
3_2	-13.0704
▁pet	-13.0712
▁-(-	-13.0715
np	-13.0716
▁disc	-13.0719
▁me	-13.0719
▁-2}	-13.0721
1[105]	-13.0729
▁17	-13.0729
--")	-13.0735
▁auxl	-13.0735
▁curInd	-13.0737
▁myString	-13.0741
▁isA	-13.0759
▁amounts	-13.0763
▁ratios	-13.0768
▁code	-13.0789
▁Time	-13.0791
▁3000	-13.0796
▁got	-13.0798
▁sumtime	-13.08
▁maxP	-13.0805
▁90	-13.0814
▁maxle	-13.0854
sa	-13.0859
▁mCount	-13.086
_7	-13.0861
Win	-13.0867
sc	-13.0893
▁minp	-13.0925
.#.#.#.#.#.#.|.|	-13.0929
▁woman	-13.093
▁1]])	-13.094
▁neg	-13.0944
ecuti	-13.0944
#.#.#.#.#.#.#.|	-13.0961
[1000000	-13.0968
74	-13.0971
atur	-13.1013
var	-13.1028
▁27;	-13.1029
▁jmax	-13.1031
pt	-13.1032
ev	-13.1038
zhi	-13.105
▁lal	-13.1056
▁lenA	-13.1097
▁hap	-13.1121
▁fg	-13.1139
miniw	-13.114
▁500000	-13.1149
▁maxid	-13.1156
reverse	-13.1159
▁usa	-13.1162
istan	-13.1165
MaxN	-13.1189
.0);	-13.1204
est	-13.1216
100010	-13.1244
factor	-13.1252
▁curl	-13.1262
▁va	-13.1262
section	-13.1271
▁teste	-13.1289
▁chr	-13.129
▁dq	-13.13
▁sa	-13.1302
200005	-13.1307
▁mima	-13.1316
ume	-13.1323
ham	-13.133
▁hu	-13.1332
sag	-13.1335
▁99999;	-13.1347
1_2	-13.1359
'*')	-13.1365
move	-13.1395
▁kind	-13.1404
▁wal	-13.1438
rec	-13.1464
Maxm	-13.1465
▁'1'))	-13.1472
9999;	-13.1495
110	-13.1516
▁vaa	-13.1522
▁vect	-13.1529
▁mai	-13.1541
▁th	-13.1541
50	-13.1551
bk	-13.1555
▁1000000)	-13.1558
▁34	-13.1576
▁pres	-13.1597
▁sal	-13.16
▁modi	-13.1614
elv	-13.1624
▁wen	-13.1629
')]	-13.1642
lcm	-13.1658
ates	-13.1662
exit	-13.168
mal	-13.1687
▁Ca	-13.1692
1000000007	-13.1692
654	-13.1694
▁1000000002	-13.1721
▁inter	-13.1736
players	-13.1752
reset	-13.1767
cr	-13.177
▁122	-13.1772
00;	-13.1775
qua	-13.1778
ion	-13.1783
▁ite	-13.1794
▁see	-13.1798
▁bic	-13.1802
hab	-13.1829
11	-13.1869
▁rc	-13.188
maxcol	-13.1886
()->	-13.1889
final	-13.1895
▁tres	-13.1899
mul	-13.1902
'1'	-13.1937
enc	-13.1937
sieve	-13.1949
▁rx	-13.196
hitung	-13.1966
--]	-13.1967
#.#.|.|)"	-13.1969
riba	-13.1992
▁14;	-13.1999
year	-13.2
mult	-13.2
▁twoPow	-13.2002
▁{'	-13.2007
(!	-13.2026
guiones	-13.2035
▁mapp	-13.2041
1[1000]	-13.2053
previous	-13.2054
page	-13.2063
mem	-13.2064
palin	-13.2073
1"	-13.2076
medal	-13.2079
password	-13.2079
feature	-13.2086
distanc	-13.2087
pasos	-13.2093
bills	-13.2094
card	-13.2094
▁mbs	-13.2099
sheet	-13.2102
lastSoldier	-13.2103
biaoji	-13.2107
poz	-13.2109
rowCount	-13.2109
pascal	-13.2111
maxSize	-13.2113
coty	-13.2114
myString	-13.2114
biao	-13.2115
curInd	-13.2117
primo	-13.2118
height	-13.2119
cakes	-13.212
Yellow	-13.2124
spec	-13.2124
busca	-13.2127
pntr	-13.214
stud	-13.2141
2[1]))	-13.2142
MP	-13.2145
primos	-13.2154
text	-13.2158
[4][2	-13.2159
mask	-13.2159
most	-13.2167
Start	-13.2176
ratios	-13.2181
▁dar	-13.2182
fre	-13.2186
was	-13.2189
▁mink	-13.2191
200	-13.2192
mole	-13.2201
done	-13.2201
▁join	-13.221
hangx	-13.2213
expo	-13.222
he	-13.2223
ish	-13.2229
vest	-13.2231
lie	-13.2237
▁ph	-13.2237
bisa	-13.2239
▁Bn	-13.2242
arra	-13.2251
]]);	-13.2252
▁recurs	-13.2259
numb	-13.2271
)(8	-13.2285
▁nw	-13.2285
sym	-13.2288
MAXT	-13.2301
twoPow	-13.2327
▁"..|	-13.2328
[])	-13.2328
(10000	-13.2329
55]	-13.2332
Odd	-13.234
rot	-13.2346
PA	-13.2359
▁"7"	-13.2369
▁bol	-13.2377
▁maxim	-13.2378
▁wt	-13.238
▁96)	-13.2382
stat	-13.2388
tin	-13.2404
540	-13.2429
der	-13.2435
▁yellow	-13.2436
▁remd	-13.244
ci	-13.2452
▁wa	-13.2465
[4000	-13.2471
Maxn	-13.2475
2][	-13.2504
▁aY	-13.2506
▁eight	-13.2511
qq	-13.2512
[24	-13.2535
[7])	-13.2545
hela	-13.255
rep	-13.2554
resp	-13.2562
]]--	-13.2564
▁local	-13.257
tep	-13.2571
udah	-13.2582
area	-13.2584
[(	-13.2586
sam	-13.2629
Oven	-13.2639
boo	-13.2644
▁sid	-13.2649
▁oc	-13.2652
alt	-13.266
uru	-13.2667
00005	-13.2671
ards	-13.2674
▁finish	-13.2684
ocal	-13.2684
▁hah	-13.2686
Lucky	-13.2698
1]);	-13.2698
Root	-13.27
Amount	-13.2705
ecom	-13.2712
levator	-13.2713
Waste	-13.2714
fim	-13.2721
isv	-13.2724
▁mirror	-13.2727
zzzzzzzzzz	-13.2727
Sol	-13.2727
nominator	-13.2731
BBBBBBB	-13.2731
▁WandC	-13.2731
▁mapOfColumn	-13.2731
FLAG	-13.2731
NumberOfContests	-13.2731
NumberOfStations	-13.2731
[1440]	-13.2731
banyaklemon	-13.2731
cardOnTable	-13.2731
domino	-13.2731
duplicate	-13.2731
extrema	-13.2731
qingkuang	-13.2731
vaporeon	-13.2731
vertikal	-13.2731
▁Amaze	-13.2731
▁IleMeczy	-13.2731
▁StaionsDistance	-13.2731
▁banyakapel	-13.2731
▁banyakpear	-13.2731
▁binarycoding	-13.2731
▁firstLine	-13.2731
▁inPutStr	-13.2731
▁mapOfRow	-13.2731
▁noOfStudents	-13.2731
▁originalState	-13.2731
▁originalsquare	-13.2731
▁plyrs	-13.2731
▁quick	-13.2731
▁shovelNum	-13.2731
▁strunity	-13.2731
▁tabeSize	-13.2731
▁tujuh	-13.2731
▁ultsel	-13.2731
▁usadas	-13.2731
TheOtherDestance	-13.2731
axDominoesNumber	-13.2731
participantes	-13.2731
▁kvbox	-13.2731
warOpen	-13.2731
▁origin	-13.2731
▁smjerovi	-13.2731
▁0.25)	-13.2731
▁tranSize	-13.2731
▁tplays	-13.2731
▁deflt	-13.2731
▁request	-13.2731
▁kedua	-13.2731
espeon	-13.2731
▁maxgas	-13.2731
▁token	-13.2731
reached	-13.2731
▁label	-13.2731
ubseq	-13.2731
▁gede	-13.2731
▁substrings	-13.2731
▁women	-13.2731
[150][150]	-13.2731
▁otherday	-13.2731
▁cilik	-13.2731
minPockets	-13.2731
▁floorNum	-13.2731
▁contBa	-13.2731
▁nInputs	-13.2732
segment	-13.2732
▁another	-13.2732
[5000000]	-13.2732
[120][120]	-13.2732
▁water	-13.2732
[605]	-13.2732
▁totAll	-13.2732
[200025]	-13.2732
▁mxcommon	-13.2732
[30005]	-13.2732
▁baack	-13.2732
Statement	-13.2732
▁after	-13.2733
▁hours	-13.2733
▁decrease	-13.2733
isTwo	-13.2733
▁747	-13.2733
▁contCh	-13.2733
lection	-13.2734
▁wordLen	-13.2734
▁774	-13.2734
▁bookgreen	-13.2735
▁oCount	-13.2735
▁744	-13.2736
[30][30]	-13.2736
▁deck	-13.2736
▁prezero	-13.2736
[56]	-13.2737
▁valfin	-13.2737
turned	-13.2737
[19]	-13.2739
luck	-13.2739
[310]	-13.2741
peration	-13.2742
2[1000009]	-13.2744
▁asli	-13.2744
[3][201]	-13.2745
▁144)	-13.2745
▁1000007;	-13.2745
▁duck	-13.2745
▁chrish	-13.2746
▁mesto	-13.2746
▁']'	-13.2748
msk	-13.2748
▁ggg	-13.275
▁maxTemp	-13.2751
▁shit	-13.2754
▁205;	-13.2755
.|.|)"	-13.2755
[1000007	-13.2755
▁10000000000	-13.2758
white	-13.2758
▁Cal	-13.2759
▁flights	-13.276
▁1007;	-13.2762
▁unos	-13.2762
oc	-13.2763
▁Bstep	-13.2764
yee	-13.2765
▁Bwin	-13.2765
Rest	-13.2766
printed	-13.2768
[34]	-13.2768
▁0.01	-13.2769
▁minsteps	-13.2773
▁Run	-13.2776
▁feets	-13.2778
▁minCoins	-13.2778
▁lanes	-13.2778
ove	-13.278
▁wnr	-13.2785
▁-9999999	-13.2786
▁2000010;	-13.2789
reach	-13.279
▁hred	-13.2799
▁god	-13.2801
▁feet	-13.2805
[104]	-13.2808
ement	-13.2808
▁checkdouble	-13.2809
▁minCoin	-13.2811
[1][1]][1]	-13.2814
▁55	-13.2814
athome	-13.2814
ero	-13.2815
▁limes	-13.2816
[1][0]][1]	-13.2823
inputArr	-13.2825
▁stay	-13.283
▁miax	-13.2833
▁fra	-13.2837
ant	-13.2841
▁gtw	-13.2842
▁nnp	-13.2845
acc	-13.2846
▁na	-13.2846
uion	-13.2855
▁math	-13.2855
▁924	-13.2858
▁users	-13.2859
▁12870	-13.2859
▁3432	-13.286
▁smlr	-13.286
▁"11111"	-13.286
▁totCc	-13.2861
▁desks	-13.2861
▁isSub	-13.2862
▁48620	-13.2862
▁zer	-13.2862
▁falta	-13.2862
▁Goals	-13.2862
▁aTypes	-13.2863
▁fatias	-13.2863
▁remnut	-13.2863
▁Potega	-13.2863
▁bhoric	-13.2863
▁bvoric	-13.2863
▁insertion	-13.2863
▁niceWord	-13.2864
▁numhours	-13.2864
▁pending	-13.2864
▁failed	-13.2864
▁aPrices	-13.2864
▁candies	-13.2864
▁sizebul	-13.2865
▁rightMost	-13.2865
▁BG	-13.2865
▁arrSorted	-13.2865
▁qoutplayers	-13.2867
▁borderPoints	-13.2867
echo	-13.2867
▁toast	-13.2869
▁minimal	-13.287
▁boss	-13.2871
highid	-13.2875
▁delta	-13.2877
▁DE	-13.2882
▁qplayers	-13.2883
▁Minv	-13.2887
keep	-13.289
▁spect	-13.2892
▁100))	-13.2894
▁PE	-13.2895
▁hmn	-13.2897
valu	-13.29
eil	-13.2902
▁Mcost	-13.2904
(1000);	-13.2913
▁tempc	-13.2918
[30001]	-13.2925
▁(9	-13.2928
▁fcount	-13.2931
▁remainders	-13.2932
clo	-13.2934
ptr	-13.2935
▁secs	-13.2936
age	-13.2937
▁tran	-13.2941
▁From	-13.2941
swaped	-13.2951
▁pkt	-13.2952
prise	-13.2955
▁wak	-13.2955
ike	-13.2956
▁gtr	-13.2957
▁77	-13.2958
▁lane	-13.2962
[11	-13.2975
▁ssum	-13.2975
[400	-13.2978
▁Ma	-13.2981
▁jwbn	-13.2983
20;	-13.2985
▁divi	-13.2988
▁drinks	-13.2993
▁conti	-13.2993
▁mindist	-13.2996
▁indexT	-13.2996
yd	-13.2998
0));	-13.3
39	-13.3004
isLucky	-13.3008
alid	-13.3013
[17]	-13.3013
3))	-13.3017
unt	-13.3019
▁rad	-13.3019
bstartc	-13.3021
▁"0000000"	-13.3025
▁'5'	-13.3025
▁maxba	-13.3027
])));	-13.3029
1[15]	-13.303
▁taka	-13.3031
▁newnut	-13.3033
▁amigos	-13.3035
▁"1111111"	-13.3036
▁toPurchase	-13.3037
▁vertical	-13.3038
▁control	-13.3038
▁sideMoves	-13.3038
▁cheapest	-13.3039
▁menorW	-13.3041
ake	-13.3041
▁verticalMoves	-13.3041
self	-13.3042
▁marked	-13.3042
▁prefixed	-13.3043
▁elevator	-13.3043
▁succ	-13.3045
▁maxName	-13.3051
▁fasum	-13.3051
▁16;	-13.3052
▁bexc	-13.3054
▁vol	-13.3055
lena	-13.3056
▁dsk	-13.3063
▁mnth	-13.3064
answ	-13.3071
gifts	-13.3083
▁vowels	-13.3088
15	-13.3089
▁100000000000;	-13.309
▁lb	-13.309
elta	-13.3092
▁2)))	-13.3096
maximo	-13.3097
▁endpos	-13.3097
▁nb	-13.31
▁kill	-13.3101
▁absent	-13.3102
▁rats	-13.3102
▁winm	-13.3103
▁sequence	-13.3105
▁replace	-13.3114
▁rount	-13.3116
pl	-13.3117
▁mindiff	-13.3119
()]	-13.3122
▁Result	-13.3128
[100000][2]	-13.313
▁10.0)	-13.3133
owl	-13.3138
[80	-13.3149
▁sumeven	-13.3152
_8	-13.3163
▁inpp	-13.3165
bestw	-13.3171
("3	-13.3173
▁'8')))	-13.3174
▁aes	-13.3183
▁rcont	-13.3189
emb	-13.3192
▁matr	-13.3195
▁(0	-13.3198
▁isP	-13.3199
▁tmpB	-13.3205
ro	-13.3205
▁huiwen	-13.3214
[1000][50	-13.3218
OW	-13.3228
▁FA	-13.3229
maxrow	-13.3234
▁printC	-13.3237
▁maxsec	-13.3238
▁"--	-13.3244
▁ashu	-13.3249
▁maxdiff	-13.3253
IN	-13.3256
▁minTime	-13.3267
▁shel	-13.3272
▁85	-13.3279
▁lenB	-13.3287
▁allA	-13.3289
arC	-13.3297
▁101	-13.3299
▁inindex	-13.3306
▁252	-13.3307
▁-10000	-13.331
▁hou	-13.3313
[0]));	-13.3315
▁arm	-13.3316
▁msum	-13.3319
▁cnew	-13.3324
▁primo	-13.3325
▁rts	-13.3325
(1005	-13.3326
sumA	-13.3331
▁bxb	-13.3341
ides	-13.3347
▁bnew	-13.3364
multiple	-13.3373
10.0	-13.339
▁pascal	-13.3392
▁rowCount	-13.3401
valido	-13.3401
▁lastSoldier	-13.3401
▁aX	-13.3403
▁Win	-13.3409
cols	-13.3433
▁chI	-13.3453
▁dip	-13.3473
▁cs	-13.3484
▁rev	-13.3493
▁ncl	-13.3494
ES	-13.3497
▁compa	-13.3497
▁sl	-13.3518
▁74	-13.3522
▁1500	-13.3532
▁bro	-13.3538
aea	-13.3545
▁ratio	-13.3549
▁anew	-13.3551
▁gmin	-13.3553
20]	-13.3595
union	-13.3605
[0	-13.3615
▁bot	-13.3639
▁ciel	-13.3646
▁3.1415926	-13.3653
▁minim	-13.366
▁lev	-13.3663
emp	-13.3671
minsq	-13.3677
10000005	-13.3701
▁curans	-13.3711
▁cty	-13.3752
▁lista	-13.3754
▁prer	-13.3755
▁bag	-13.3766
▁ya	-13.3787
1000;	-13.3797
xxx	-13.3803
WIN	-13.3808
▁bulb	-13.3836
sumb	-13.3839
▁lab	-13.385
▁hc	-13.3862
umberof	-13.3897
▁xie	-13.3898
rtr	-13.3905
dari	-13.3912
Fre	-13.3916
▁';	-13.3941
[20000	-13.3968
▁5000;	-13.3969
fi	-13.3971
stau	-13.3985
▁getDi	-13.3987
▁123	-13.3992
ymax	-13.4007
0000000000000000	-13.4019
lag	-13.4023
▁dna	-13.4039
▁(*(	-13.4042
▁pal	-13.4066
'0');	-13.407
▁ls	-13.4112
1[2]	-13.4132
▁fr	-13.4136
▁maxh	-13.4149
▁')';	-13.4162
▁ntc	-13.4168
_2	-13.4223
[10005	-13.4247
▁44	-13.4276
do	-13.4282
▁minib	-13.4316
!")	-13.4318
ess	-13.4354
▁che	-13.4363
stri	-13.4365
▁tone	-13.4408
▁"?")	-13.4447
▁uni	-13.4452
▁-1);	-13.446
▁(-1))	-13.4464
▁14	-13.4468
▁couting	-13.4473
▁phi	-13.4477
▁-2;	-13.4478
cntone	-13.4486
▁rd	-13.4491
▁2.0	-13.4494
▁47;	-13.4503
))))	-13.4524
▁anstemp	-13.4554
▁ang	-13.4554
mol	-13.4559
('.'	-13.4571
30	-13.4576
▁post	-13.4578
ung	-13.4585
▁search	-13.4586
OfT	-13.4596
▁-100;	-13.461
sq	-13.4632
686	-13.4637
▁tests	-13.465
12;	-13.4654
chr	-13.4674
by	-13.4681
▁2000000	-13.4734
dub	-13.4743
▁cas	-13.4764
chk	-13.478
▁cei	-13.4796
▁scorea	-13.4797
▁"..	-13.4803
▁99999999999999	-13.4804
▁ti	-13.4809
doi	-13.4816
cal	-13.4838
▁send	-13.4838
▁sumC	-13.484
cord	-13.4847
▁cut	-13.4855
▁'0'));	-13.4855
case	-13.486
[1005	-13.4864
▁btot	-13.4903
▁ju	-13.4933
mmax	-13.4934
▁sumM	-13.4935
▁maxb	-13.4935
▁hn	-13.4943
▁minix	-13.495
OD	-13.4958
"\	-13.4965
ador	-13.4975
(9);	-13.498
mov	-13.5008
▁vi	-13.5032
▁-2	-13.5039
over	-13.5052
▁srt	-13.5055
posx	-13.5104
sw	-13.5125
greater	-13.5127
mymap	-13.5153
45	-13.5165
▁jw	-13.5173
▁pA	-13.5177
remove	-13.5204
++];	-13.5206
yello	-13.5218
Test	-13.5221
tSum	-13.5233
▁imin	-13.5238
ref	-13.5248
47	-13.5252
Move	-13.5261
▁ax	-13.5271
run	-13.5272
alph	-13.5283
menor	-13.5289
▁'9'))	-13.5291
▁nor	-13.5303
[1]]	-13.5307
weight	-13.5311
nCr	-13.5312
minimum	-13.5316
divisor	-13.5317
forward	-13.5325
▁99999	-13.5338
buf	-13.5345
needPrezent	-13.535
schedule	-13.5352
'\0'	-13.5359
▁Maxa	-13.5365
bottom	-13.5365
dasha	-13.5366
setIt	-13.5369
23;	-13.5372
both	-13.5373
remaining	-13.5374
cl	-13.5386
large	-13.5387
star	-13.5392
difference	-13.5396
▁maxk	-13.5399
firstPointer	-13.5401
comando	-13.5403
MashaCount	-13.5405
chris	-13.5409
bst	-13.5413
acum	-13.5414
allA	-13.5415
bul	-13.5416
▁mc	-13.5418
agi	-13.5421
chore	-13.5424
replace	-13.5425
linha	-13.5426
aexc	-13.543
PhoneArray	-13.5431
numver	-13.5431
pangkat	-13.5431
posibles	-13.5431
awal	-13.5433
profits	-13.5434
huiwen	-13.5434
reading	-13.5434
printC	-13.5434
orgStr	-13.5436
esPrimo	-13.5436
minute	-13.5438
before	-13.5439
satu	-13.544
xorr	-13.5441
binary	-13.5442
spyke	-13.5443
packs	-13.5445
newsum	-13.5445
[3][	-13.5445
prod	-13.5452
byte	-13.5452
maxsec	-13.5452
leaf	-13.5453
outfile	-13.5456
atoi	-13.5456
rides	-13.5459
NULL	-13.546
sss	-13.5462
yelo	-13.5463
round	-13.5463
cities	-13.5467
tob	-13.5468
tipe	-13.547
bus	-13.547
qiu	-13.5481
amounts	-13.5483
lift	-13.5484
sheets	-13.549
taken	-13.5492
discounts	-13.5493
128	-13.5495
sig	-13.5496
free	-13.5496
▁17;	-13.55
men	-13.5507
▁bc	-13.5514
suma	-13.5517
mCount	-13.5517
ways	-13.5518
games	-13.5541
Result	-13.5552
infile	-13.5558
▁minsum	-13.5559
Minb	-13.5561
Check	-13.5562
hol	-13.5575
maxval	-13.5575
minP	-13.5586
▁gift	-13.5602
'5'	-13.5614
Name	-13.5619
1[101]	-13.5631
bt	-13.5682
09]	-13.5689
pot	-13.5691
Ran	-13.5693
cle	-13.5696
FA	-13.5702
▁totalc	-13.5705
sho	-13.572
band	-13.575
tations	-13.5783
▁sorte	-13.5788
▁wl	-13.5801
mmap	-13.5803
brr	-13.5805
▁2.000	-13.5812
divs	-13.5823
sisa	-13.5826
007]	-13.584
got	-13.5842
dic	-13.5846
IL	-13.5847
▁(--	-13.5856
mainvector	-13.5866
▁19	-13.5868
16)	-13.5875
▁201	-13.5889
ffic	-13.5904
'0'	-13.5913
ToPa	-13.5914
▁"5/6	-13.5915
▁"2/3	-13.5915
▁"1/3	-13.5915
▁"1/2	-13.5921
▁nnl	-13.5953
▁"1/6	-13.5954
'3'	-13.5959
obe	-13.5985
olution	-13.6
10000;	-13.6006
▁131	-13.6009
10]	-13.6011
▁cmax	-13.6017
▁bottle	-13.6021
▁minr	-13.6032
▁minD	-13.6038
[600]	-13.6039
razn	-13.6041
earch	-13.6046
▁65]	-13.6049
Word	-13.6054
ow	-13.6057
qrt	-13.6058
(&	-13.6062
▁alexey	-13.6063
duce	-13.6063
ockets	-13.6063
negativo	-13.6064
FFFFFF	-13.6064
urchase	-13.6064
Distance	-13.6064
availabe	-13.6064
banknotes	-13.6064
commamd	-13.6064
haveSmallLetter	-13.6064
hayColision	-13.6064
numberOfInputs	-13.6064
shouldContinue	-13.6064
source	-13.6064
unfortunate	-13.6064
uniqueCharacters	-13.6064
utility	-13.6064
▁BestCoupon	-13.6064
▁LastevenPos	-13.6064
▁LastoddPos	-13.6064
▁Tonya	-13.6064
▁aguinha	-13.6064
▁aumento	-13.6064
▁bilangan	-13.6064
▁bincode	-13.6064
▁certos	-13.6064
▁chatSec	-13.6064
▁encoded	-13.6064
▁foobar	-13.6064
▁garrafas	-13.6064
▁greeting	-13.6064
▁handels	-13.6064
▁hidden	-13.6064
▁hoursSpent	-13.6064
▁lEven	-13.6064
▁leavekid	-13.6064
▁lemoes	-13.6064
▁limoes	-13.6064
▁maxGive	-13.6064
▁minLimon	-13.6064
▁noOfOranges	-13.6064
▁numOfInfo	-13.6064
▁numOfNet	-13.6064
▁numShapes	-13.6064
▁numType	-13.6064
▁punkty	-13.6064
▁quatro	-13.6064
▁segundos	-13.6064
▁sobuj	-13.6064
▁social	-13.6064
▁students	-13.6064
▁supercentral	-13.6064
▁timeOfEnding	-13.6064
▁totDist	-13.6064
▁towhid	-13.6064
▁travel	-13.6064
▁tsocial	-13.6064
dragon	-13.6064
▁boxees	-13.6064
▁rowsDeleted	-13.6064
▁totalMoves	-13.6064
▁validProblems	-13.6064
▁whiteAns	-13.6064
dropout	-13.6064
isLesson	-13.6064
respuesta	-13.6064
▁akhir	-13.6064
▁juntos	-13.6064
▁myAss	-13.6064
▁virus	-13.6064
▁wynw	-13.6064
[600][600]	-13.6064
▁ichdama	-13.6064
▁numberOfLucky	-13.6064
▁qplays	-13.6064
▁stuff	-13.6064
Answers	-13.6064
kpyto	-13.6064
▁collect	-13.6064
▁resultadofinal	-13.6064
▁unhack	-13.6064
▁MCM	-13.6064
▁entry	-13.6064
[30005][25]	-13.6064
[700]	-13.6064
_7_4	-13.6064
wasBest	-13.6064
▁leafName	-13.6064
▁belum	-13.6064
rigth	-13.6064
▁colSet	-13.6064
▁"0/1	-13.6064
cifra	-13.6064
[100500]	-13.6064
▁onemore	-13.6064
▁until	-13.6064
▁distressed	-13.6064
23846264338327	-13.6064
▁passCode	-13.6064
▁playerState	-13.6064
▁resultado	-13.6064
▁rowSet	-13.6064
▁killed	-13.6065
statements	-13.6065
▁firstDay	-13.6065
▁smallAns	-13.6065
▁distress	-13.6065
▁selection	-13.6065
▁truth	-13.6065
[405]	-13.6065
▁comeco	-13.6065
▁angel	-13.6065
Toats	-13.6065
▁"14"	-13.6065
▁patok	-13.6065
hutch	-13.6065
camino	-13.6065
Code	-13.6065
paichi	-13.6065
nuts	-13.6065
▁captin	-13.6065
[500005]	-13.6065
success	-13.6065
▁batas	-13.6065
llega	-13.6065
▁minSal	-13.6065
▁minusSum	-13.6065
positivo	-13.6065
▁lowerCount	-13.6065
▁horiz	-13.6066
▁777	-13.6066
▁dollar	-13.6066
▁alexeyI	-13.6066
6666	-13.6066
zzzzzzzzzzzz	-13.6066
▁cityNo	-13.6066
wynb	-13.6067
▁vvod	-13.6067
▁numberOf	-13.6067
mirrorup	-13.6067
mirrorright	-13.6067
▁xiao	-13.6067
▁Cost	-13.6067
▁cntlw	-13.6067
finished	-13.6068
▁ctMin	-13.6068
matrex	-13.6068
[100006]	-13.6069
[123]	-13.6069
[106]	-13.6069
▁Wsp	-13.6069
colour	-13.607
yeah	-13.607
▁newsquare	-13.607
paila	-13.6071
(2002)	-13.6072
▁simmin	-13.6072
▁lasteven	-13.6073
▁tira	-13.6073
▁ctMax	-13.6074
▁gear	-13.6074
▁Last	-13.6074
▁listprime	-13.6075
▁512}	-13.6076
flush	-13.6076
▁term	-13.6076
▁firstone	-13.6076
limake	-13.6076
Open	-13.6077
[5010]	-13.6077
▁indE	-13.6077
[256]	-13.6077
▁nhack	-13.6078
bestIndex	-13.6079
▁kids	-13.608
▁tail	-13.608
▁250.0)	-13.6082
▁maxWaste	-13.6087
▁obj	-13.6089
waiter	-13.609
uppe	-13.609
maxlen	-13.6091
▁prazn	-13.6091
trash	-13.6091
▁quantity	-13.6092
[4][11]	-13.6092
[99]	-13.6092
▁doll	-13.6094
Fir	-13.6095
camp	-13.6096
▁"00"	-13.6097
▁modul	-13.6097
▁study	-13.6099
▁lOdd	-13.6101
▁quant	-13.6102
[20005	-13.6103
isRoot	-13.6108
isCo	-13.6108
[11][111]	-13.6108
▁360));	-13.6109
▁veces	-13.6109
[502]	-13.6111
etya	-13.6111
slices	-13.6114
signal	-13.6115
▁wtf	-13.6118
▁modPow	-13.6118
ames	-13.6118
4]	-13.6119
(101);	-13.6119
[601]	-13.6123
▁upset	-13.6127
ote	-13.613
▁hack	-13.6131
▁mnind	-13.6131
▁35)	-13.6132
▁revert	-13.6132
▁sifr	-13.6134
▁Dis	-13.6134
[10][100]	-13.6136
nCount	-13.6141
▁2}]	-13.6142
▁bord	-13.6144
90(	-13.615
▁selves	-13.6151
▁!!(	-13.6151
▁util	-13.6151
▁tick	-13.6151
Players	-13.6154
▁Mtime	-13.6155
▁dash	-13.6161
[16]	-13.6162
▁haha	-13.6165
▁2001;	-13.6166
All	-13.6166
isD	-13.6169
[125]	-13.6169
ru	-13.617
[500000]	-13.6174
▁childs	-13.6177
Abs	-13.6177
▁"2	-13.6179
▁INFL	-13.6184
▁highnum	-13.6185
))->	-13.6188
▁(9999	-13.6188
▁child	-13.6188
curAng	-13.6188
▁hand	-13.619
lef	-13.6192
)('	-13.6192
[4][5]	-13.6196
▁pearl	-13.6199
▁jvb	-13.6212
▁ru	-13.6212
▁kString	-13.6214
tToPa	-13.6217
[12	-13.6221
[115]	-13.6227
▁split	-13.623
▁peso	-13.6233
▁real	-13.6234
▁(99999	-13.6237
▁"144"	-13.6239
▁Tot	-13.6241
▁2500;	-13.6241
▁solu	-13.6243
▁isOne	-13.6244
▁ambos	-13.6245
Des	-13.6245
▁mejor	-13.6245
▁peeps	-13.6245
▁nsticks	-13.6246
▁divide	-13.6247
▁vashya	-13.6247
▁towel	-13.6247
▁wasOut	-13.6247
▁selisih	-13.6247
▁pertama	-13.6248
▁refrence	-13.6248
▁arrOccur	-13.6248
▁coupons	-13.6248
▁backward	-13.6248
▁casiresp	-13.6249
▁curWorst	-13.6249
▁zeroNum	-13.6249
▁antisimon	-13.6249
▁contBi	-13.6249
▁inputLength	-13.6249
▁downloaded	-13.625
▁importance	-13.625
▁username	-13.625
▁plNumber	-13.625
▁programming	-13.6251
▁Wstep	-13.6251
▁tsd	-13.6251
▁CountOfMoney	-13.6251
▁removeDuplicate	-13.6251
▁chrisCounter	-13.6252
▁mishkaCounter	-13.6252
▁mySum	-13.6252
(1))	-13.6255
▁lste	-13.6256
▁curMin	-13.6258
▁zcost	-13.6258
▁flot	-13.6268
▁++(	-13.6271
▁links	-13.6272
▁uno	-13.6273
▁stairs	-13.6273
uest	-13.6276
▁movesB	-13.6279
▁atan	-13.6284
▁mndist	-13.6284
▁Orange	-13.6291
pare	-13.6293
▁1000002;	-13.6294
isAns	-13.6298
▁samey	-13.63
▁simon	-13.6304
▁1)][	-13.6305
▁vert	-13.6313
Pro	-13.6317
▁listsize	-13.6318
stick	-13.6318
▁evenCount	-13.6319
▁fro	-13.6319
▁Eu	-13.6322
▁curY	-13.6328
▁57	-13.6334
frap	-13.6337
▁contM	-13.6343
▁101)	-13.6346
▁minstep	-13.6348
▁parta	-13.6349
▁sievesize	-13.6352
Game	-13.6363
ya	-13.6365
555	-13.6368
▁curX	-13.6377
▁RC	-13.6378
▁1100;	-13.6378
▁sudah	-13.6379
▁Day	-13.6384
▁firstw	-13.6387
▁indO	-13.6396
olo	-13.6398
▁miss	-13.6399
▁mystr	-13.6401
▁samex	-13.6404
▁jud	-13.6407
xsum	-13.6408
▁rgt	-13.6408
▁tplayers	-13.6408
2[15]	-13.6423
▁rla	-13.6424
++")	-13.6432
▁Ile	-13.6434
▁prv	-13.6439
tempChar	-13.6443
(1000000000	-13.6444
▁bf	-13.6445
sumthing	-13.6448
say	-13.6452
nam	-13.6453
▁nph	-13.6453
▁teams	-13.6459
▁zzz	-13.6467
(1.5)	-13.6468
▁ppp	-13.6475
▁1000004	-13.648
▁Tim	-13.6482
▁58)	-13.6483
▁fcounter	-13.649
▁nrsel	-13.6493
▁SumOf	-13.6496
▁raices	-13.6498
▁parity	-13.6499
▁jiati	-13.65
▁nowsafe	-13.65
counta	-13.65
▁writes	-13.6501
▁watched	-13.6501
▁question	-13.6503
▁satuan	-13.6503
▁initial	-13.6504
▁identical	-13.6506
▁secondPointer	-13.6507
▁(9999999	-13.6517
▁TB	-13.6518
▁nextprime	-13.6519
▁wei	-13.652
▁tempSame	-13.6521
[18	-13.6521
▁ssss	-13.6522
▁colume	-13.6528
▁bpb	-13.6534
▁dish	-13.6534
isBest	-13.6534
pu	-13.6535
lin	-13.6553
999	-13.6559
anda	-13.6568
lon	-13.6568
▁halfs	-13.6571
▁isT	-13.6572
2222	-13.6594
0]	-13.6595
▁maxA	-13.6597
tur	-13.6598
605;	-13.6602
▁35;	-13.6602
▁disy	-13.6609
▁Mid	-13.6626
▁contain	-13.6628
▁am	-13.6631
ell	-13.6632
▁nowR	-13.6634
▁Go	-13.6638
errl	-13.6646
▁acumx	-13.6646
▁itm	-13.6648
▁"..|"	-13.6656
▁(99	-13.6663
▁(99999999	-13.6665
slow	-13.6668
▁numW	-13.6669
An	-13.6677
[90]	-13.6688
▁alp	-13.6691
▁creq	-13.6694
▁nslice	-13.6698
[999	-13.67
late	-13.6713
▁till	-13.6717
(20	-13.672
▁byte	-13.6733
tter	-13.6737
▁sg	-13.6738
▁nsp	-13.674
▁'7';	-13.674
▁270	-13.676
▁mnb	-13.6766
▁MashaCount	-13.677
▁comando	-13.6772
▁firstPointer	-13.6774
Rem	-13.6774
cant	-13.6781
▁stab	-13.6781
▁nOdd	-13.6783
▁aexc	-13.6784
▁range	-13.6793
DY	-13.6793
▁awal	-13.6793
▁(999999	-13.6801
▁remn	-13.6801
da	-13.6814
[11111	-13.682
▁ansh	-13.6827
▁BR	-13.6831
xmax	-13.6836
date	-13.6837
▁505	-13.6837
▁bestb	-13.6838
dia	-13.6839
▁ptot	-13.684
▁winc	-13.6869
LE	-13.6891
ted	-13.6895
95	-13.6902
disC	-13.6903
strr	-13.6904
▁minas	-13.6907
▁bx	-13.6912
▁0.00000	-13.6918
▁1111	-13.6921
je	-13.6922
▁(999	-13.6932
odPow	-13.6943
16;	-13.6947
Counter	-13.6948
olut	-13.6949
▁finala	-13.6949
)];	-13.6998
▁(-	-13.6999
[9	-13.7019
▁10.0	-13.7021
▁pasos	-13.7026
ood	-13.7027
▁cursum	-13.7029
▁(999999999	-13.7031
nPos	-13.7034
▁feature	-13.7036
ost	-13.7048
▁TA	-13.7056
Sh	-13.7058
(2)))	-13.7063
▁yello	-13.707
[60	-13.7075
xian	-13.708
▁poz	-13.7082
▁10)];	-13.7094
▁92)	-13.7097
▁basi	-13.7134
▁'['))	-13.7151
ht	-13.7155
bad	-13.7184
▁auxr	-13.7198
220	-13.7198
▁vocal	-13.7198
▁maxW	-13.7199
▁gm	-13.7212
2[10000]	-13.7221
9]	-13.7225
▁gra	-13.723
▁cpt	-13.7235
fg	-13.7236
ncasos	-13.7252
ho	-13.7267
summ	-13.7275
▁dishes	-13.7304
8979323846264338	-13.7313
▁shap	-13.7322
▁46	-13.7332
#.#.|.|"	-13.7338
asn	-13.7359
▁ctf	-13.7362
▁coin	-13.7363
▁isit	-13.737
▁bui	-13.7371
▁da	-13.7377
▁hole	-13.7378
▁aea	-13.7391
▁pol	-13.7419
▁distr	-13.743
actions	-13.7431
▁vowel	-13.7455
▁mina	-13.7458
▁9999999999999	-13.7475
▁cpr	-13.7478
▁idxb	-13.7496
▁vote	-13.7514
▁ansf	-13.7526
▁rm	-13.7549
▁slt	-13.758
put	-13.7586
▁isD	-13.759
▁sor	-13.7594
ando	-13.7598
▁maxindex	-13.7602
dick	-13.7605
▁"1")	-13.7622
uan	-13.7629
▁128;	-13.7632
▁3];	-13.7643
120)	-13.7643
sumx	-13.7655
▁2000001	-13.766
▁tmpA	-13.7665
[100][2]	-13.7666
▁firstb	-13.7669
▁Bu	-13.7676
00005]	-13.768
▁10)]	-13.7683
▁spe	-13.7683
▁"8	-13.7691
▁getR	-13.7693
▁pcount	-13.7694
cm	-13.7709
▁won	-13.7709
mnx	-13.7714
[3][2]	-13.7715
nro	-13.7733
686]	-13.7746
▁leg	-13.7767
▁totd	-13.7777
▁numL	-13.7781
cto	-13.7797
2000005	-13.7803
sequence	-13.7826
▁floors	-13.7829
▁rowe	-13.7854
▁us	-13.788
▁cul	-13.7895
7]	-13.791
etime	-13.7927
▁scores	-13.7931
▁mmm	-13.7978
▁flagB	-13.7985
idxa	-13.8036
▁def	-13.805
▁inputs	-13.8062
equence	-13.8072
1024	-13.8073
▁incr	-13.8074
2]))	-13.8077
0005	-13.8092
▁ts	-13.8095
▁vid	-13.8122
▁chal	-13.8132
eps	-13.8144
)))))	-13.8148
▁umbreon	-13.8152
MA	-13.8154
▁curs	-13.8155
▁glaceon	-13.8157
ections	-13.816
▁jolteon	-13.8164
▁leafeon	-13.8166
▁sylveon	-13.8169
▁flr	-13.8171
▁flareon	-13.8175
▁sad	-13.8177
▁37	-13.818
am	-13.8188
ny	-13.8195
▁nx	-13.8197
▁isv	-13.8212
▁2][	-13.8223
[333	-13.8242
sizeof	-13.8259
cd	-13.827
sb	-13.8291
cmax	-13.83
sed	-13.8303
▁wb	-13.8341
[3000	-13.8348
1009	-13.8357
▁TR	-13.8371
▁bcount	-13.8372
positiv	-13.8397
Next	-13.8414
[105	-13.8455
)*	-13.8477
▁sums	-13.8481
▁pmin	-13.8512
ou	-13.8517
maxW	-13.8555
kata	-13.8556
▁3.141592	-13.8582
▁lj	-13.8584
(200	-13.859
▁ano	-13.859
▁65)	-13.8591
nu	-13.8594
ag	-13.8628
[44	-13.8637
'];	-13.8638
ot	-13.8649
▁bex	-13.8649
▁cX	-13.8652
▁10005	-13.8692
ori	-13.8699
▁'('))	-13.8699
[111	-13.8701
▁cY	-13.8711
]]]]	-13.8729
Se	-13.8731
maxa	-13.8733
hb	-13.8743
▁terkecil	-13.8754
▁minB	-13.8755
pA	-13.8768
▁Is	-13.8777
▁liz	-13.8811
ort	-13.8817
▁(1000000	-13.883
ist	-13.883
51	-13.8839
▁zs	-13.884
▁nu	-13.8858
▁fo	-13.886
▁105	-13.8864
▁maxd	-13.8873
xb	-13.8888
imin	-13.8914
▁tmpa	-13.8918
NE	-13.894
vi	-13.8948
tx	-13.8949
Cnt	-13.8962
nx	-13.9004
bl	-13.9031
rope	-13.9033
notes	-13.9078
▁kmin	-13.9079
restaurants	-13.9082
▁"0")	-13.9092
][8]	-13.9097
11;	-13.9104
▁ary	-13.9105
nnl	-13.9117
GI	-13.9154
maxd	-13.9155
[15000	-13.9156
▁"?	-13.9175
va	-13.9186
▁tempb	-13.9195
odp	-13.9199
55;	-13.9214
im	-13.9225
(1000000	-13.9232
▁numera	-13.9276
▁1"	-13.9283
arch	-13.9288
▁6][	-13.9299
2501;	-13.9306
▁22	-13.9321
tone	-13.9327
cnta	-13.9352
▁(((1	-13.9353
▁com	-13.9383
▁unio	-13.9383
Do	-13.9396
360	-13.946
minvalue	-13.9466
xd	-13.9478
fit	-13.9484
▁'-');	-13.9489
[55	-13.9497
-1;	-13.9503
▁cntc	-13.9528
▁'&'	-13.9528
nowl	-13.9545
ba	-13.9547
▁xy	-13.9561
▁4]	-13.9598
▁81)	-13.9617
▁0.0	-13.9628
slice	-13.963
7")	-13.9631
▁-1000000007	-13.9669
▁62	-13.9684
umb	-13.9691
ult	-13.9718
mz	-13.9721
▁tota	-13.9725
▁minstring	-13.9751
maximum	-13.9777
[0]++	-13.9782
cclock	-13.9796
▁Pow	-13.9799
26;	-13.9811
sta	-13.9821
▁cntd	-13.9825
31	-13.9828
[200010	-13.9835
▁vii	-13.9838
msh	-13.9849
[1][1]]	-13.9891
lg	-13.9902
work	-13.9905
▁vB	-13.9906
priority	-13.9931
▁"("	-13.9939
▁mnj	-13.9957
ri	-13.9967
[1007	-13.9985
270	-13.9991
winC	-13.9992
isP	-14.0006
curlower	-14.0031
rlmoves	-14.0034
pref	-14.0054
38	-14.0067
goal	-14.007
▁ccnt	-14.0079
▁pans	-14.0094
▁3010	-14.0095
▁cnta	-14.0097
contador	-14.0114
▁tu	-14.0119
3.0	-14.0126
10005	-14.0127
print	-14.014
LunchTimes	-14.0167
▁cm	-14.0168
▁2.00	-14.0169
amount	-14.0174
nap	-14.0184
99;	-14.019
static	-14.0207
player	-14.0212
ica	-14.0216
numOps	-14.0225
▁asn	-14.023
▁")"	-14.0246
▁lar	-14.0253
▁9999	-14.0253
hor	-14.0259
vow	-14.0264
city	-14.0275
caso	-14.028
contain	-14.0288
hasil	-14.03
safe	-14.0311
▁2010	-14.0311
coord	-14.0312
[2000	-14.0317
inches	-14.0325
normal	-14.0325
[4][	-14.0326
000000005	-14.0326
maxSections	-14.0327
people	-14.0334
statment	-14.0335
isPref	-14.0337
--------------+	-14.0339
location	-14.034
Res	-14.0344
lpha	-14.0347
wait	-14.0354
enemy	-14.0355
loop	-14.0361
finall	-14.0368
deq	-14.037
posiciones	-14.0371
lzl	-14.0376
zhu	-14.0377
secondPointer	-14.038
identical	-14.0381
passengers	-14.0382
gcdofarray	-14.0383
buffer	-14.0385
divisores	-14.0385
question	-14.0386
initial	-14.0387
banyakganjil	-14.0388
watched	-14.0388
parity	-14.0392
walk	-14.0392
verticalMoves	-14.0393
raices	-14.0393
satuan	-14.0394
[2003	-14.0394
aramic	-14.0394
nowsafe	-14.0394
valori	-14.0396
problems	-14.0396
SumOf	-14.0396
cheapest	-14.0397
jiati	-14.0398
256	-14.0398
minimun	-14.0398
sideMoves	-14.0398
wrong	-14.0398
finishy	-14.0398
control	-14.0399
finishx	-14.0399
vertical	-14.0399
toPurchase	-14.04
smallest	-14.0401
tempSame	-14.0401
nrsel	-14.0401
actual	-14.0402
distinct	-14.0403
prefixed	-14.0404
amigos	-14.0405
▁-100000000	-14.0406
mayor	-14.0406
maks	-14.0406
menorW	-14.0406
nextprime	-14.0406
maxName	-14.0407
tipo	-14.0407
"1111111"	-14.0408
newnut	-14.0409
tedad	-14.041
marked	-14.0414
texto	-14.0415
succ	-14.0417
mnth	-14.0417
cake	-14.042
maap	-14.042
imulai	-14.0422
Freq	-14.0423
bexc	-14.0424
pearls	-14.0424
mapper	-14.0425
dua	-14.0426
elevator	-14.0428
zuo	-14.0429
only	-14.043
180.0	-14.0433
blocka	-14.0438
taka	-14.044
maxLen	-14.0441
"0000000"	-14.0441
▁((5	-14.0442
triangle	-14.0443
ciel	-14.0449
ttl	-14.0453
sumeven	-14.046
Roz	-14.046
zerocnt	-14.0462
bob	-14.0466
hush	-14.0466
acumx	-14.0466
matr	-14.0467
▁ra	-14.0469
four	-14.0469
desk	-14.047
absent	-14.0472
nextPrime	-14.0476
medals	-14.0476
sumdn	-14.0476
andd	-14.0478
md	-14.0481
(100005	-14.0481
norm	-14.0482
▁ave	-14.0487
265358979323846	-14.0488
kill	-14.0492
sumtp	-14.0495
[1][0]]	-14.0498
cnew	-14.0498
the	-14.0499
press	-14.0499
▁2.0))	-14.05
eCount	-14.05
48);	-14.0501
cube	-14.0504
verif	-14.0504
[0][2])	-14.0508
lane	-14.0511
dodec	-14.0523
pages	-14.0526
timr	-14.0545
5);	-14.0551
▁blen	-14.0553
dim	-14.0554
Mid	-14.0556
]))))	-14.0557
scored	-14.0564
95;	-14.0566
minval	-14.0567
levels	-14.0573
bnew	-14.0575
syl	-14.0576
inv	-14.0588
Cmp	-14.0588
bulbs	-14.059
nslice	-14.0599
▁Ar	-14.0603
▁SS	-14.0612
hu	-14.063
▁stc	-14.0633
lft	-14.0635
▁bstart	-14.0637
13579	-14.0656
MN	-14.0663
nOdd	-14.0677
▁100000000)	-14.0677
sd	-14.0692
dots	-14.0696
▁wor	-14.0706
answers	-14.0708
Pr	-14.0708
tren	-14.071
LC	-14.0711
fine	-14.0712
▁-999999999	-14.0721
(210	-14.0738
new	-14.074
rprev	-14.0751
maxindex	-14.0764
extPrime	-14.0782
rgt	-14.0783
nimpar	-14.0784
sprime	-14.0785
ashu	-14.0786
prevr	-14.0787
GN	-14.0791
cntr	-14.08
▁Str	-14.0834
ask	-14.0852
bsent	-14.0867
beginat	-14.0876
▁5.0	-14.0881
1[5]	-14.0882
▁iss	-14.0884
▁'_'	-14.0891
(105	-14.09
alp	-14.09
cot	-14.091
quare	-14.091
ight	-14.0916
▁unit	-14.0922
chI	-14.0929
▁70	-14.0932
2139062143	-14.0937
1[101	-14.0942
nl	-14.0944
anew	-14.0959
oard	-14.0963
▁999999999)	-14.0964
▁rever	-14.0964
cul	-14.0967
gra	-14.097
ic	-14.0985
oroban	-14.0987
riangle	-14.0999
▁ceils	-14.1003
6]	-14.1008
angka	-14.1009
[10001	-14.1016
▁problem	-14.102
▁friend	-14.1022
▁stair	-14.1022
[2010	-14.1023
winc	-14.1025
onth	-14.1031
istinct	-14.1033
▁precomp	-14.1037
[1000009]	-14.1042
uiwen	-14.1055
puter	-14.1056
▁jmn	-14.1058
11111111	-14.1059
▁888888	-14.106
omer	-14.1062
common	-14.1062
▁ispal	-14.1062
.000)	-14.1064
▁Sieve	-14.1064
1(100020)	-14.1064
9876	-14.1064
codechef	-14.1064
enough	-14.1064
statmnts	-14.1064
toastFromBottle	-14.1064
totalLimon	-14.1064
▁AppEnd	-14.1064
▁LastCommom	-14.1064
▁LastCommon	-14.1064
▁available	-14.1064
▁bByGame	-14.1064
▁cEven	-14.1064
▁maxsecction	-14.1064
▁missingTemps	-14.1064
▁penalty	-14.1064
▁pichone	-14.1064
▁removals	-14.1064
▁timeWalk	-14.1064
▁toastDueToSalt	-14.1064
▁totalSalt	-14.1064
[2600]	-14.1064
[200200]	-14.1064
▁INFTY	-14.1064
[1007][1007]	-14.1064
osible	-14.1064
Small	-14.1064
▁bnyak	-14.1064
[811]	-14.1064
249(	-14.1064
[2505]	-14.1065
[361]	-14.1065
OUT	-14.1065
[150005]	-14.1065
[5100]	-14.1065
▁repeat	-14.1065
[116]	-14.1065
[66]	-14.1066
[4005]	-14.1066
17576	-14.1066
raction	-14.1066
▁minGas	-14.1066
tenth	-14.1067
▁newpage	-14.1067
▁mySS	-14.1067
▁8000;	-14.1067
[1008]	-14.1068
INP	-14.1068
▁upperbound	-14.1068
("-")	-14.107
▁passed	-14.107
arge	-14.1071
icate	-14.1072
prawa	-14.1072
▁endloop	-14.1072
[320]	-14.1073
[1111111]	-14.1073
borne	-14.1075
totalMili	-14.1075
[150000]	-14.1076
"|	-14.1076
reate	-14.1077
(1001);	-14.1077
▁In	-14.1078
[59]	-14.1079
"444"	-14.1081
▁2000005;	-14.1082
)*8	-14.1082
▁ispalin	-14.1083
[1200]	-14.1084
▁tempName	-14.1084
[65]	-14.1085
▁setbit	-14.1086
tuple	-14.1087
ABC	-14.1089
sPer	-14.1089
▁ass	-14.1094
Gdrink	-14.1097
[1020]	-14.1097
▁units	-14.1102
[360]	-14.1102
[999999]	-14.1103
▁64]++;	-14.1104
▁68)	-14.1105
inary	-14.1106
gest	-14.1106
▁3000001	-14.1107
▁mycmp	-14.1107
PRI	-14.1107
nGas	-14.1108
.........|	-14.1113
▁oldstr	-14.1117
▁(-7)	-14.1118
myFile	-14.1119
▁10004;	-14.1122
▁rAmount	-14.1123
▁qtd	-14.1127
fla	-14.1127
suffix	-14.1127
[151]	-14.1128
ucl	-14.1132
UD	-14.1145
ther	-14.1149
anc	-14.1153
69]	-14.1164
[501	-14.1165
[255]	-14.1167
cho	-14.117
stexp	-14.1173
modu	-14.1179
timer	-14.118
1_	-14.1183
▁-2139062143	-14.1193
[1000006][2]	-14.1196
1005	-14.1197
[35][2]	-14.1199
tinue	-14.1204
vowels	-14.1205
▁sqr	-14.122
▁newM	-14.122
odds	-14.1223
zzzz	-14.1223
bin	-14.1225
▁sumclock	-14.1227
ecz	-14.1229
lewa	-14.1234
ipos	-14.1241
Pi	-14.1249
2++	-14.1252
kind	-14.1252
minw	-14.1253
▁sqrs	-14.1255
flat	-14.1258
)((-	-14.1258
OG	-14.126
69	-14.1263
[1000001	-14.127
▁mixx	-14.1273
▁Fil	-14.1277
333	-14.1288
▁1000003)	-14.129
▁org	-14.1293
blem	-14.1305
▁group	-14.1308
ments	-14.1309
▁anti	-14.131
[3010]	-14.1317
Not	-14.1323
▁1.5;	-14.1329
▁chocs	-14.1329
isA	-14.1335
[50000	-14.1342
▁isF	-14.1351
5][100	-14.1354
▁judg	-14.1356
▁facto	-14.1357
oal	-14.1359
▁exrt	-14.1363
▁Team	-14.1369
▁html	-14.1369
▁tstudy	-14.1371
▁death	-14.1372
mxd	-14.1372
▁numCup	-14.1372
▁phack	-14.1373
tol	-14.1373
▁shuzi	-14.1374
▁poped	-14.1374
▁cyka	-14.1374
▁thislen	-14.1375
▁Petya	-14.1375
▁shuwei	-14.1375
▁yippee	-14.1375
▁kachok	-14.1375
▁numMedal	-14.1375
▁tSinOven	-14.1376
▁choice	-14.1376
▁reshala	-14.1376
▁deep	-14.1377
▁tempRange	-14.1377
▁buttons	-14.1377
▁maxSwaps	-14.1379
▁spicifier	-14.1379
▁upperCount	-14.1382
▁mltotal	-14.1383
▁comparator	-14.1384
▁fourcount	-14.1384
▁minima	-14.1388
▁vict	-14.1393
[14]	-14.1394
▁MAXB	-14.1396
nowp	-14.1402
▁levl	-14.1404
maxcount	-14.1404
▁sete	-14.1405
▁-99999999	-14.1408
2[35]	-14.1409
lista	-14.141
▁link	-14.1416
4")	-14.1416
▁ajout	-14.1417
▁allB	-14.142
0000;	-14.1422
▁couner	-14.1423
▁Sr	-14.1424
maxr	-14.143
thn	-14.1446
oct	-14.1448
▁smallans	-14.1451
flagB	-14.1454
ajo	-14.1459
pan	-14.1475
▁olds	-14.1483
▁tempCount	-14.1488
▁0.5)	-14.1491
▁1000000004	-14.1495
▁(24	-14.1504
TA	-14.1508
▁tetr	-14.1511
lab	-14.1511
locale	-14.1518
hou	-14.1528
▁58;	-14.153
ty	-14.1531
▁ky	-14.1535
▁eq	-14.1535
▁divN	-14.1554
▁cOdd	-14.1566
-------------+	-14.157
BB	-14.1572
09;	-14.1576
lic	-14.1578
▁40	-14.1579
▁(;	-14.1594
▁vsz	-14.1595
sorte	-14.1596
▁use	-14.1596
we	-14.1606
())->	-14.1611
(105)	-14.1612
tetr	-14.1615
▁suit	-14.1624
▁clr	-14.1625
Point	-14.1629
▁Rem	-14.1629
(*(	-14.1637
▁pc	-14.1664
▁11111111	-14.1674
▁just	-14.1689
[30	-14.1696
2[1000000]	-14.1703
48	-14.1713
[15	-14.1729
(100005)	-14.1738
▁coA	-14.1744
▁2)];	-14.1751
minD	-14.1757
▁qbe	-14.1767
▁uu	-14.1768
sevenCount	-14.1776
tb	-14.1783
▁tipo	-14.1786
idxb	-14.1803
[500	-14.1803
▁-3000	-14.1829
▁zhu	-14.1829
▁180.0	-14.183
14;	-14.1833
▁imulai	-14.1836
scorea	-14.1844
1[1000000]	-14.1847
ack	-14.1848
▁statment	-14.1849
▁wid	-14.1849
▁verif	-14.1854
▁vpoints	-14.1856
▁maxSections	-14.1859
▁mk	-14.1863
curl	-14.1876
][3]))	-14.1882
rhs	-14.1888
▁hl	-14.1889
▁casos	-14.1898
▁tempsum	-14.1898
mna	-14.1908
90	-14.1913
wo	-14.1916
▁mnts	-14.1929
▁250.	-14.1932
▁eCount	-14.1936
Inf	-14.1944
▁lon	-14.1946
lhs	-14.1947
----	-14.1964
Bu	-14.1975
qual	-14.198
ppr	-14.1981
▁cntup	-14.1996
[202]	-14.2002
2333	-14.2004
(202	-14.2012
may	-14.2019
▁86	-14.2031
na	-14.2043
au	-14.205
aus	-14.206
names	-14.2063
maxnum	-14.2081
▁isPref	-14.2091
▁aset	-14.2091
kh	-14.2093
▁minnum	-14.2094
3[2])	-14.2096
vaa	-14.2097
)(3	-14.2113
flagA	-14.2115
▁501	-14.2119
real	-14.2133
▁tan	-14.2133
0}	-14.2153
▁flage	-14.218
gon	-14.2181
dama	-14.2181
1[20]	-14.2182
OfM	-14.2199
▁powm	-14.2201
tal	-14.2204
-8)	-14.2216
iso	-14.2222
Lim	-14.2241
▁gol	-14.2245
▁ult	-14.2255
▁mxj	-14.2295
maxA	-14.2296
]]++	-14.2298
▁ob	-14.2299
▁cval	-14.23
cs	-14.2318
imax	-14.2318
▁oct	-14.2323
cstart	-14.2338
maps	-14.2341
▁schedule	-14.2345
▁needPrezent	-14.2349
▁dodec	-14.2353
▁{{0	-14.2364
▁setIt	-14.2376
▁forward	-14.2399
countr	-14.2401
[0][3])	-14.2433
1000	-14.2434
▁evn	-14.2443
npar	-14.2446
anjil	-14.2448
▁dasha	-14.2463
2[30]	-14.2467
▁colo	-14.2477
▁pan	-14.2481
moda	-14.2496
[10004	-14.2499
▁Len	-14.2507
En	-14.2515
▁vow	-14.2527
lens	-14.2534
▁medal	-14.2565
ned	-14.2567
[0]])	-14.2569
ric	-14.2585
▁10005)	-14.2597
(100000	-14.2599
▁cstart	-14.2615
BWBWBWB	-14.2619
▁sumtp	-14.263
▁MA	-14.2638
▁jpar	-14.2642
inser	-14.2643
[300	-14.2661
[101][1	-14.2674
[252	-14.2703
ws	-14.2715
000000009	-14.2717
kMaxN	-14.2733
▁cw	-14.275
jum	-14.2755
tha	-14.276
lter	-14.2761
ra	-14.2799
pc	-14.2801
lc	-14.2802
eccion	-14.2819
▁sumdn	-14.283
▁guiones	-14.2846
de	-14.2863
▁mpoints	-14.2888
▁enc	-14.2912
vr	-14.2915
)'	-14.2919
ems	-14.2919
00000000;	-14.2922
ings	-14.2924
fac	-14.2929
nex	-14.2929
4.	-14.2956
(1000	-14.2957
((*	-14.2982
maxv	-14.2986
0000007;	-14.2995
bx	-14.3005
Div	-14.3064
12[	-14.3065
[18]	-14.3068
ida	-14.3088
▁checkD	-14.3089
(101	-14.3102
1001	-14.3124
ang	-14.3126
▁mnd	-14.3163
2[3]	-14.3173
lev	-14.3194
▁mxl	-14.3203
etNext	-14.3229
_2)	-14.3233
▁tes	-14.3234
bY	-14.3234
▁thn	-14.3241
minstring	-14.3263
▁cand	-14.3269
1[200]	-14.327
▁-5000000	-14.3271
▁si	-14.3283
ze	-14.3314
▁2501]	-14.3328
▁'4';	-14.3331
▁512	-14.3346
[-1])	-14.3347
▁pu	-14.3364
▁tml	-14.3365
▁minj	-14.3367
[30000]	-14.3369
▁wc	-14.3388
wr	-14.3407
corre	-14.3422
[3001	-14.343
▁"3	-14.3439
------------+	-14.3444
▁jmx	-14.3479
8979323846	-14.3514
▁let	-14.353
ymin	-14.3544
yb	-14.355
99	-14.3566
tmpa	-14.3595
▁kan	-14.3596
his	-14.3609
'('	-14.362
▁bY	-14.3629
fA	-14.3629
▁kir	-14.3663
▁pct	-14.3668
nxt	-14.3673
60	-14.368
ncandidate	-14.3705
▁'}';	-14.3707
▁turn	-14.3715
pairt	-14.3716
▁2)]	-14.3735
xy	-14.3745
isl	-14.3764
][60]	-14.3766
▁ri	-14.3807
[6][2	-14.3844
org	-14.3858
ob	-14.3865
▁510	-14.387
][7	-14.3888
sumD	-14.389
nLim	-14.3898
1[100000]	-14.3901
▁ml	-14.3901
][10]	-14.3902
100);	-14.3916
▁fq	-14.3919
rip	-14.392
▁sig	-14.3955
[100001	-14.3967
bX	-14.3978
ps	-14.4003
srt	-14.4003
ase	-14.4006
inc	-14.4024
▁Temp	-14.4039
▁newb	-14.4046
4[0]	-14.4081
▁vA	-14.4109
)(++	-14.4119
▁lf	-14.4142
000]	-14.4154
▁63)	-14.4172
000000000;	-14.4203
▁clen	-14.4243
foo	-14.4273
sumc	-14.4284
putL	-14.4291
(4)	-14.4298
▁".")	-14.4306
isal	-14.4307
▁ooi	-14.4314
▁chat	-14.4343
niz	-14.4344
nvotes	-14.4347
▁bk	-14.4361
pres	-14.4384
Wor	-14.439
_1;	-14.4395
'));	-14.4403
99999999	-14.4408
beg	-14.4416
▁lasti	-14.4422
▁disx	-14.4431
#.#.#.#.	-14.4436
▁Total	-14.4437
2]);	-14.448
-1)	-14.4515
][1]][	-14.4529
ition	-14.4553
24;	-14.4558
ft	-14.458
▁maxj	-14.4589
mpos	-14.4613
▁250))	-14.4614
▁Da	-14.4636
[505	-14.4642
LOG	-14.4663
000000000000000	-14.4665
▁bin	-14.4668
▁rp	-14.468
200;	-14.4686
yp	-14.471
▁primesize	-14.4719
inch	-14.4741
()])	-14.4745
▁(27	-14.4836
(25	-14.4841
ity	-14.4853
ig	-14.4857
▁lu	-14.4871
▁bX	-14.4894
(5)	-14.493
▁td	-14.4939
ON	-14.495
▁sumend	-14.4951
▁positi	-14.4961
lexi	-14.4966
444	-14.4995
('1')	-14.502
((2	-14.5065
('#'	-14.5089
▁tempn	-14.5108
▁100010	-14.5117
dq	-14.5169
urr	-14.5183
▁Pr	-14.5202
jmin	-14.5205
mapa	-14.5226
__	-14.5232
30[	-14.5234
astodd	-14.5248
▁43	-14.5257
8]	-14.5278
▁2)));	-14.5306
▁rt	-14.5313
▁coB	-14.5314
Nu	-14.5373
▁pat	-14.5377
▁mys	-14.5419
22;	-14.5428
[101][10	-14.5436
00000007;	-14.5454
][4	-14.5456
gum	-14.5492
bi	-14.5498
"?")	-14.5499
port	-14.5516
2[100]	-14.5525
1[10000	-14.5531
.#.	-14.5561
lsum	-14.5588
901	-14.5594
▁bi	-14.5607
▁modu	-14.5638
▁newint	-14.5651
▁bac	-14.5695
)])	-14.5705
▁-1000;	-14.5713
▁"5	-14.5721
_1)	-14.5732
[52	-14.5733
[101	-14.5801
[][3]	-14.5836
30003	-14.5851
▁sk	-14.5867
▁En	-14.5875
ef	-14.5904
05]	-14.5906
▁ba	-14.5921
▁166	-14.5946
▁(;;	-14.5953
#.|.|)"	-14.5972
kq	-14.6001
2(2	-14.6022
▁900000000	-14.6027
suml	-14.6041
ela	-14.6058
-----------+	-14.6073
3(	-14.6116
ec	-14.6143
10000	-14.615
▁lmax	-14.6162
▁100000001	-14.6196
rk	-14.6199
ip	-14.6223
cntc	-14.6226
▁on	-14.6226
Ta	-14.625
▁sv	-14.6273
(6	-14.6355
50000	-14.6365
▁kg	-14.637
3[100	-14.6374
▁52;	-14.6386
conti	-14.6389
][7]	-14.639
▁10000000)	-14.6397
casos	-14.6406
▁xa	-14.6409
▁Che	-14.6424
][0]][	-14.6446
sL	-14.647
ansA	-14.6522
2[101]	-14.6533
▁nume	-14.6571
2[2]	-14.6576
mmi	-14.6594
"1"	-14.6646
gen	-14.6656
20)	-14.668
wa	-14.6687
ass	-14.6741
56	-14.6815
000	-14.6848
wy	-14.6865
ana	-14.6873
jmax	-14.6888
(0))	-14.6894
nnp	-14.6894
Mi	-14.6924
▁27	-14.6941
▁nome	-14.6944
▁mon	-14.6964
5000000)	-14.7002
1[100005]	-14.7039
▁mapa	-14.7041
▁3.14159265358	-14.7047
▁ini	-14.706
▁yd	-14.7066
INE	-14.7068
px	-14.7085
▁sai	-14.71
▁First	-14.711
Ye	-14.7179
▁9]	-14.7183
▁nap	-14.7199
▁sto	-14.7225
tl	-14.7227
distl	-14.7247
nik	-14.726
gs	-14.7281
89	-14.7322
ups	-14.7344
1000000007;	-14.735
Ar	-14.7356
DE	-14.7382
▁tempr	-14.752
maxc	-14.7526
ete	-14.7528
0"	-14.7566
▁selec	-14.7568
TR	-14.7582
▁os	-14.7602
1[100]	-14.763
▁nn	-14.7634
"2"	-14.764
[50	-14.7656
▁inser	-14.7742
])))	-14.7752
sel	-14.7774
▁alen	-14.7779
▁summax	-14.7823
emove	-14.786
▁bla	-14.7866
1000000000	-14.787
][4]	-14.7917
ours	-14.7967
40	-14.7977
Col	-14.8023
▁ansy	-14.8047
▁TO	-14.8089
▁100000000000	-14.812
init	-14.8167
100000000	-14.8178
4]++;	-14.8205
▁anda	-14.8225
[110	-14.8265
0000000	-14.8297
▁7]	-14.8302
▁mis	-14.8313
0005;	-14.8318
▁idxa	-14.8325
'4'	-14.8356
▁streak	-14.8362
▁dst	-14.8369
▁gem	-14.8389
'.'	-14.8396
jia	-14.8408
005;	-14.8422
noe	-14.8433
RS	-14.844
▁ansx	-14.8448
370	-14.845
lines	-14.8474
_1.	-14.8486
7][100	-14.8503
ini	-14.8519
evenCount	-14.8579
Mili	-14.8599
▁xor	-14.8604
3")	-14.8614
2[10	-14.8638
180	-14.8695
▁{0	-14.8708
97	-14.8718
ds	-14.8743
▁300	-14.8756
zz	-14.8758
▁0.0)	-14.8773
11111]	-14.878
zli	-14.8813
"()"	-14.8837
ctions	-14.8842
deg	-14.8853
▁sets	-14.8915
ste	-14.8947
rib	-14.8972
0010;	-14.8995
37	-14.9002
inter	-14.9014
[0][(	-14.9017
sal	-14.9033
▁400000	-14.9047
hate	-14.9074
Input	-14.9089
isval	-14.9167
107	-14.9174
cmin	-14.9181
ave	-14.9193
1000007	-14.9276
▁slast	-14.9293
▁ge	-14.9332
xmin	-14.9342
pm	-14.9366
0007;	-14.9387
god	-14.939
ves	-14.9395
[250	-14.9413
28]	-14.944
▁58	-14.9461
▁vc	-14.9463
▁py	-14.9469
maxk	-14.9481
▁999999999999	-14.9486
▁2.00000	-14.9502
love	-14.952
22	-14.9525
105;	-14.9539
][3]++	-14.9549
▁10010	-14.9567
▁mq	-14.958
inder	-14.9603
▁stu	-14.9607
▁vy	-14.9624
▁ft	-14.9644
▁'0')))	-14.9655
cntm	-14.9661
'0')	-14.9661
nder	-14.9678
----------+	-14.9693
10000010	-14.9696
fir	-14.9699
toggle	-14.9709
Ga	-14.9719
numOf	-14.9727
123456	-14.9774
[200001	-14.9787
(1.5	-14.9812
123;	-14.9852
'>'	-14.9863
▁Se	-14.9869
2[10000	-14.9885
1000000009	-14.9887
minus	-14.9888
'1')	-14.9893
banyak	-14.9905
From	-14.992
6.	-14.996
take	-14.9974
▁getso	-14.9979
0))	-14.9994
choose	-14.9999
▁imp	-15
person	-15
[27	-15.0004
Find	-15.0021
slogan	-15.0037
Need	-15.0044
[17	-15.0046
▁23333	-15.0059
decrypt	-15.0061
block	-15.0071
wi	-15.0075
palindrom	-15.0076
danik	-15.0091
other	-15.0103
0.5	-15.0105
small	-15.0108
[600	-15.011
limak	-15.0113
mtest	-15.0122
simon	-15.0125
Day	-15.014
salt	-15.0141
{1};	-15.0152
horizontal	-15.0153
numedges	-15.0158
capacity	-15.0162
nearest	-15.0176
▁69	-15.0179
frest	-15.0183
army	-15.0185
denominator	-15.0186
LIN	-15.0187
characters	-15.0189
blyat	-15.019
cards	-15.0192
Orange	-15.0193
frac	-15.0199
kc	-15.0202
▁-214748364	-15.0209
77	-15.0214
boxes	-15.0226
great	-15.0229
highest	-15.024
'-'	-15.0249
Green	-15.0255
iskom	-15.0258
trunc	-15.0271
diamond	-15.0271
borrow	-15.0277
bucket	-15.0277
user	-15.0277
larger	-15.0282
blockb	-15.0285
secretaryNum	-15.0285
complexity	-15.0286
javab	-15.0287
bac	-15.0288
numofelements	-15.0288
edits	-15.0289
besar	-15.0289
▁we	-15.029
pearl	-15.0291
added	-15.0291
comparator	-15.0292
secretary	-15.0292
noOfprizes	-15.0294
numOfteams	-15.0294
groups	-15.0295
secnumbs	-15.0296
0--;	-15.0297
fourcount	-15.0299
spicifier	-15.03
maxSwaps	-15.03
4])	-15.0303
buttons	-15.0304
tempRange	-15.0304
curDay	-15.0305
couner	-15.0306
reshala	-15.0306
choice	-15.0306
borderPoints	-15.0307
tSinOven	-15.0307
revStr	-15.0307
mltotal	-15.0307
upperCount	-15.0308
reqrec	-15.0308
numMedal	-15.0308
qoutplayers	-15.0309
kachok	-15.0309
yippee	-15.0309
shuwei	-15.031
thislen	-15.031
insect	-15.0312
group	-15.0314
arrSorted	-15.0315
numCup	-15.0316
rightMost	-15.0316
shuzi	-15.0316
mishkaCounter	-15.0317
chrisCounter	-15.0317
removeDuplicate	-15.0317
▁-1000000000000	-15.0317
death	-15.0317
menorB	-15.0318
CountOfMoney	-15.0318
[100100	-15.0318
Petya	-15.0319
tstudy	-15.032
programming	-15.032
candies	-15.0321
faktori	-15.0321
aPrices	-15.0322
downloaded	-15.0323
importance	-15.0323
inicio	-15.0323
niceWord	-15.0324
pending	-15.0324
numhours	-15.0324
cyka	-15.0324
CASE	-15.0324
minimal	-15.0324
inputLength	-15.0325
antisimon	-15.0325
casiresp	-15.0326
curWorst	-15.0326
bhoric	-15.0326
bvoric	-15.0326
Potega	-15.0326
tiga	-15.0326
smallans	-15.0326
fatias	-15.0327
aTypes	-15.0327
html	-15.0328
phnum	-15.0328
backward	-15.0328
phack	-15.0328
coupons	-15.0329
arrOccur	-15.0329
11)	-15.0329
refrence	-15.033
plNumber	-15.033
username	-15.0331
qpow	-15.0331
remnut	-15.0331
pertama	-15.0331
failed	-15.0332
judg	-15.0332
selisih	-15.0333
Goals	-15.0333
Team	-15.0333
zeroNum	-15.0335
vashya	-15.0335
48620	-15.0336
wasOut	-15.0336
isSub	-15.0336
divide	-15.0337
falta	-15.0337
esto	-15.0337
totCc	-15.0338
contBi	-15.0339
bill	-15.034
nsticks	-15.0341
kiek	-15.0342
mejor	-15.0342
"11111"	-15.0343
ambos	-15.0343
stairs	-15.0344
dict	-15.0344
getNum	-15.0345
smlr	-15.0345
peeps	-15.0345
meio	-15.0346
toast	-15.0347
deep	-15.0347
mySum	-15.0347
isOne	-15.0347
12870	-15.0349
qplayers	-15.035
vetor	-15.0351
box	-15.0352
minCoin	-15.0353
choc	-15.0354
vict	-15.0358
insertion	-15.0358
curMin	-15.0363
Ncoins	-15.0364
blocks	-15.0366
delta	-15.037
exrt	-15.037
mndist	-15.0372
boss	-15.0374
3432	-15.0375
maxlevel	-15.0381
empat	-15.0385
poped	-15.0389
currgcd	-15.039
feet	-15.0395
peso	-15.0395
allB	-15.0398
924	-15.0399
links	-15.0401
"144"	-15.0402
esP	-15.0402
movesB	-15.0404
colo	-15.0407
tempCount	-15.0408
Wstep	-15.041
tplayers	-15.0413
sumr	-15.0414
sizebul	-15.0419
split	-15.0424
(-1	-15.0424
quit	-15.043
cOdd	-15.0441
contM	-15.0441
dish	-15.0448
Get	-15.0449
▁2000000000000	-15.0455
Mcost	-15.0468
flot	-15.0472
gtw	-15.0475
Red	-15.0476
samey	-15.0478
▁es	-15.0481
▁abso	-15.0489
▁cl	-15.0493
5][5]	-15.0493
suit	-15.0493
lvl	-15.0497
winB	-15.05
divN	-15.0522
chores	-15.0537
factors	-15.0541
ud	-15.0542
shelb	-15.0546
blep	-15.0549
chec	-15.0552
levl	-15.0557
occ	-15.0573
curY	-15.0579
han	-15.0587
mc	-15.0591
▁1][0]);	-15.0592
izq	-15.0605
prices	-15.0607
(-1.	-15.0615
disc	-15.0618
LA	-15.0636
▁1][0]))	-15.0646
viii	-15.0647
▁front	-15.0651
more	-15.0653
pkt	-15.0655
sudah	-15.0655
cCount	-15.0663
[300001	-15.0664
unit	-15.0668
lcp	-15.0668
let	-15.0672
qbe	-15.068
98	-15.0685
▁0.0000	-15.069
use	-15.0698
link	-15.0698
nomer	-15.07
curX	-15.0701
▁strr	-15.0718
▁20000000000	-15.0727
samex	-15.0729
[10002	-15.0733
▁0.000	-15.0739
999;	-15.0739
(9	-15.0748
vpoints	-15.075
matri	-15.0762
jud	-15.0769
drinks	-15.0771
minTime	-15.0776
upd	-15.0793
just	-15.0797
creq	-15.0805
mcd	-15.0807
'<'	-15.0809
cntup	-15.081
▁50000	-15.0819
▁-10	-15.0824
51][25	-15.0829
▁nil	-15.0833
lime	-15.0841
maxdiff	-15.0847
tes	-15.0851
stck	-15.0855
▁1.5	-15.0857
FB	-15.0884
dsk	-15.0913
00000050;	-15.0916
indexT	-15.0926
lasth	-15.0939
▁df	-15.094
▁ly	-15.0944
clr	-15.0952
ompare	-15.0952
▁isRo	-15.0961
512	-15.0963
util	-15.0964
[3010	-15.0966
▁12345678	-15.1002
▁240;	-15.1006
▁vb	-15.102
▁30000	-15.1021
boy	-15.1029
ffffff	-15.1032
12312	-15.1051
finala	-15.1051
▁decreas	-15.1052
▁214748364	-15.1059
gla	-15.1064
ASE	-15.1064
696969	-15.1064
▁subtract	-15.1064
###	-15.1064
696969696	-15.1064
012345678	-15.1064
▁"0123	-15.1065
1234567	-15.1065
[12345	-15.1066
▁3.14	-15.1067
vm	-15.1069
OfE	-15.1069
ffffffffffffff	-15.107
0737	-15.1073
8888888	-15.1076
"012	-15.1077
123123	-15.1078
zzzzzzzzzzz	-15.1078
▁tolow	-15.1082
▁hr	-15.1083
2147483647	-15.1089
567	-15.1095
606	-15.11
1415	-15.1111
576;	-15.1114
123456789	-15.1127
▁uts	-15.1133
343	-15.1172
kiu	-15.1177
156	-15.1178
teste	-15.1179
#	-16.4908
